<unk>	0
<s>	0
</s>	0
▁t	-0
▁a	-1
in	-2
he	-3
re	-4
on	-5
▁the	-6
er	-7
at	-8
▁s	-9
▁o	-10
en	-11
▁c	-12
▁w	-13
is	-14
it	-15
or	-16
es	-17
ed	-18
al	-19
▁p	-20
an	-21
▁f	-22
▁b	-23
▁an	-24
ing	-25
▁in	-26
▁of	-27
ar	-28
ion	-29
▁m	-30
▁d	-31
ou	-32
--	-33
ic	-34
▁to	-35
le	-36
▁and	-37
as	-38
ro	-39
▁th	-40
ent	-41
▁h	-42
ct	-43
▁re	-44
et	-45
▁n	-46
el	-47
st	-48
om	-49
▁e	-50
▁T	-51
il	-52
▁l	-53
id	-54
▁I	-55
im	-56
ot	-57
ig	-58
ve	-59
▁is	-60
▁(	-61
ut	-62
▁g	-63
----	-64
▁S	-65
am	-66
ol	-67
ation	-68
▁A	-69
se	-70
ce	-71
ly	-72
▁for	-73
ur	-74
▁C	-75
▁be	-76
ow	-77
▁that	-78
▁u	-79
▁1	-80
ra	-81
▁on	-82
▁st	-83
ch	-84
ver	-85
ul	-86
ith	-87
if	-88
ad	-89
ay	-90
▁con	-91
▁with	-92
▁as	-93
▁The	-94
ir	-95
od	-96
▁M	-97
▁y	-98
▁$	-99
ter	-100
▁pro	-101
00	-102
ate	-103
▁P	-104
▁2	-105
um	-106
▁it	-107
her	-108
▁v	-109
pe	-110
ab	-111
▁al	-112
▁we	-113
ri	-114
ge	-115
==	-116
▁\	-117
nd	-118
▁wh	-119
▁B	-120
▁de	-121
res	-122
pp	-123
qu	-124
▁W	-125
ac	-126
ment	-127
▁ex	-128
▁F	-129
est	-130
▁H	-131
ist	-132
os	-133
▁was	-134
--------	-135
▁D	-136
▁or	-137
us	-138
▁com	-139
ant	-140
em	-141
▁you	-142
▁he	-143
▁-	-144
▁=	-145
**	-146
▁are	-147
▁L	-148
▁at	-149
ht	-150
oc	-151
▁su	-152
▁"	-153
ers	-154
▁R	-155
iv	-156
nt	-157
ity	-158
ess	-159
ain	-160
th	-161
▁by	-162
▁se	-163
op	-164
ction	-165
rom	-166
ore	-167
ld	-168
ill	-169
▁N	-170
▁r	-171
un	-172
and	-173
▁not	-174
end	-175
ke	-176
ive	-177
▁ha	-178
ort	-179
pt	-180
▁ne	-181
▁this	-182
▁E	-183
▁from	-184
art	-185
ight	-186
ud	-187
▁G	-188
red	-189
pl	-190
ial	-191
▁sh	-192
ies	-193
▁*	-194
▁0	-195
ell	-196
te	-197
▁ch	-198
ated	-199
▁O	-200
▁have	-201
fe	-202
▁{	-203
ure	-204
ine	-205
▁<	-206
our	-207
all	-208
ould	-209
▁le	-210
per	-211
ag	-212
▁3	-213
og	-214
age	-215
).	-216
ical	-217
ame	-218
ue	-219
ust	-220
▁can	-221
{\	-222
iz	-223
▁[	-224
ich	-225
rou	-226
▁In	-227
▁us	-228
▁cl	-229
ib	-230
▁res	-231
cl	-232
);	-233
able	-234
ard	-235
ase	-236
▁whe	-237
..	-238
out	-239
ath	-240
====	-241
ie	-242
▁im	-243
▁ab	-244
ome	-245
▁j	-246
ult	-247
ack	-248
▁U	-249
▁J	-250
act	-251
ass	-252
ost	-253
▁comp	-254
▁ad	-255
ans	-256
▁pl	-257
ther	-258
ide	-259
01	-260
▁cont	-261
▁k	-262
▁}	-263
="	-264
ast	-265
▁were	-266
orm	-267
ign	-268
ub	-269
▁all	-270
ap	-271
▁me	-272
▁+	-273
▁Th	-274
ition	-275
ind	-276
▁4	-277
ip	-278
▁which	-279
▁do	-280
ak	-281
ph	-282
▁has	-283
ice	-284
cc	-285
▁int	-286
ary	-287
du	-288
ous	-289
//	-290
▁tr	-291
▁but	-292
one	-293
ens	-294
----------------	-295
ime	-296
_{	-297
▁dis	-298
are	-299
▁if	-300
ress	-301
▁wor	-302
ations	-303
ong	-304
ence	-305
int	-306
▁5	-307
ff	-308
▁will	-309
ile	-310
ty	-311
ect	-312
ru	-313
),	-314
con	-315
ok	-316
▁out	-317
ance	-318
▁go	-319
ose	-320
▁per	-321
ep	-322
}}	-323
▁un	-324
▁en	-325
ents	-326
gh	-327
av	-328
ber	-329
au	-330
ally	-331
ace	-332
▁his	-333
port	-334
so	-335
xt	-336
▁one	-337
ely	-338
ia	-339
ord	-340
▁app	-341
ory	-342
ire	-343
ear	-344
ach	-345
▁they	-346
▁K	-347
ions	-348
▁ev	-349
▁so	-350
form	-351
▁ar	-352
lic	-353
▁qu	-354
ang	-355
ree	-356
▁“	-357
▁their	-358
ne	-359
▁up	-360
ry	-361
▁part	-362
▁more	-363
▁St	-364
0.	-365
ail	-366
-1	-367
ys	-368
ite	-369
ors	-370
▁pre	-371
▁$\	-372
▁ag	-373
▁there	-374
▁other	-375
▁V	-376
ound	-377
ft	-378
ake	-379
vel	-380
own	-381
de	-382
ount	-383
fere	-384
urn	-385
▁0.	-386
▁had	-387
ll	-388
cre	-389
▁li	-390
ata	-391
very	-392
▁sa	-393
math	-394
▁&	-395
▁sp	-396
▁been	-397
▁your	-398
▁also	-399
▁man	-400
▁6	-401
erv	-402
▁'	-403
ks	-404
ates	-405
▁who	-406
com	-407
▁would	-408
▁any	-409
we	-410
▁It	-411
ject	-412
▁no	-413
low	-414
nder	-415
▁Y	-416
▁when	-417
▁ob	-418
ific	-419
\]	-420
▁#	-421
▁19	-422
▁about	-423
eth	-424
▁ass	-425
ple	-426
▁than	-427
▁time	-428
erm	-429
▁This	-430
ict	-431
}$	-432
ater	-433
ook	-434
▁over	-435
▁its	-436
[@	-437
wo	-438
ring	-439
▁my	-440
ref	-441
▁sc	-442
row	-443
clud	-444
rib	-445
▁spe	-446
▁sy	-447
▁some	-448
ces	-449
fter	-450
▁We	-451
▁new	-452
lect	-453
▁bet	-454
▁gen	-455
ob	-456
get	-457
▁dif	-458
▁def	-459
^{	-460
fect	-461
ck	-462
▁te	-463
▁ret	-464
ode	-465
▁am	-466
irst	-467
▁inter	-468
old	-469
▁sub	-470
ove	-471
ied	-472
vers	-473
ays	-474
▁fe	-475
▁acc	-476
ps	-477
ild	-478
▁comm	-479
▁Wh	-480
▁7	-481
▁off	-482
▁act	-483
reat	-484
ced	-485
▁into	-486
▁her	-487
ause	-488
▁under	-489
▁get	-490
▁cons	-491
========	-492
▁He	-493
▁ro	-494
▁our	-495
▁des	-496
▁rel	-497
ov	-498
▁Ch	-499
▁rec	-500
▁pe	-501
▁may	-502
ma	-503
ings	-504
iss	-505
ual	-506
▁val	-507
ative	-508
ari	-509
▁only	-510
▁add	-511
▁kn	-512
▁year	-513
▁two	-514
pon	-515
▁8	-516
ink	-517
ick	-518
▁\[	-519
iew	-520
▁said	-521
▁stud	-522
ert	-523
pect	-524
▁bec	-525
ular	-526
▁ind	-527
▁work	-528
▁them	-529
</	-530
▁mod	-531
▁reg	-532
hed	-533
▁trans	-534
▁pos	-535
▁//	-536
igh	-537
ark	-538
0,	-539
unction	-540
▁inv	-541
▁use	-542
▁tra	-543
▁em	-544
▁like	-545
▁201	-546
▁what	-547
cess	-548
oint	-549
19	-550
stem	-551
elf	-552
▁bl	-553
▁co	-554
ock	-555
▁such	-556
ased	-557
▁first	-558
ish	-559
ating	-560
itt	-561
▁9	-562
▁ph	-563
ont	-564
▁pres	-565
▁form	-566
▁|	-567
▁ra	-568
ef	-569
▁prov	-570
▁where	-571
ments	-572
pro	-573
▁these	-574
▁pr	-575
ian	-576
",	-577
▁col	-578
}\	-579
▁differe	-580
ient	-581
▁class	-582
▁pat	-583
ility	-584
▁det	-585
▁after	-586
▁just	-587
▁.	-588
▁sign	-589
ize	-590
▁pol	-591
▁set	-592
1,	-593
ex	-594
12	-595
der	-596
ffect	-597
ween	-598
▁she	-599
ident	-600
▁exp	-601
▁how	-602
▁Let	-603
ss	-604
1.	-605
aw	-606
ec	-607
oth	-608
olog	-609
ublic	-610
ption	-611
__	-612
ution	-613
▁need	-614
▁then	-615
▁result	-616
()	-617
ople	-618
ood	-619
ange	-620
type	-621
▁att	-622
▁between	-623
▁could	-624
](	-625
▁cell	-626
▁return	-627
▁rem	-628
10	-629
fig	-630
eg	-631
ough	-632
ype	-633
▁supp	-634
right	-635
ise	-636
cy	-637
ollow	-638
▁includ	-639
ious	-640
ix	-641
les	-642
▁grou	-643
▁10	-644
##	-645
▁used	-646
ble	-647
▁**	-648
▁/	-649
▁data	-650
ax	-651
...	-652
iel	-653
up	-654
ourt	-655
ible	-656
.2	-657
▁num	-658
als	-659
▁fl	-660
▁show	-661
▁[@	-662
▁using	-663
ues	-664
hen	-665
fra	-666
ons	-667
▁fact	-668
.,	-669
){	-670
▁i	-671
▁const	-672
oy	-673
">	-674
▁requ	-675
tern	-676
▁function	-677
."	-678
▁ac	-679
▁Se	-680
ER	-681
▁cor	-682
▁sim	-683
▁people	-684
ull	-685
▁should	-686
▁spec	-687
ox	-688
ics	-689
▁did	-690
rough	-691
▁sur	-692
▁dist	-693
▁follow	-694
-2	-695
ram	-696
its	-697
inal	-698
ruct	-699
▁Un	-700
ning	-701
fore	-702
▁because	-703
ren	-704
000	-705
)$	-706
▁end	-707
ade	-708
****	-709
▁system	-710
ield	-711
▁inst	-712
ined	-713
ract	-714
ities	-715
▁most	-716
▁back	-717
St	-718
ful	-719
rit	-720
▁@	-721
▁see	-722
put	-723
▁him	-724
▁test	-725
▁:	-726
ited	-727
▁know	-728
▁sm	-729
ool	-730
uring	-731
li	-732
▁produ	-733
sp	-734
pos	-735
ures	-736
cal	-737
▁case	-738
▁well	-739
▁gener	-740
▁bu	-741
▁through	-742
ins	-743
▁char	-744
▁ext	-745
"}	-746
ever	-747
]{	-748
▁200	-749
▁again	-750
hes	-751
▁_	-752
▁For	-753
mer	-754
(\	-755
▁high	-756
->	-757
err	-758
▁each	-759
▁state	-760
ized	-761
▁different	-762
IN	-763
ants	-764
11	-765
ational	-766
ric	-767
ower	-768
▁ent	-769
▁effect	-770
ator	-771
▁As	-772
2.	-773
imes	-774
▁If	-775
▁right	-776
cond	-777
▁import	-778
ically	-779
text	-780
▁min	-781
ms	-782
round	-783
▁does	-784
io	-785
wn	-786
],	-787
▁public	-788
ew	-789
▁What	-790
ta	-791
nce	-792
▁An	-793
riv	-794
ctions	-795
ients	-796
2,	-797
▁Com	-798
▁even	-799
ily	-800
ON	-801
par	-802
uch	-803
_{\	-804
vent	-805
sc	-806
▁make	-807
▁cur	-808
))	-809
▁Q	-810
rol	-811
ork	-812
ethod	-813
other	-814
frac	-815
set	-816
let	-817
▁ke	-818
▁Re	-819
uc	-820
15	-821
13	-822
dition	-823
the	-824
▁ap	-825
16	-826
ute	-827
▁loc	-828
▁same	-829
▁par	-830
▁anal	-831
20	-832
▁dec	-833
▁every	-834
▁incre	-835
read	-836
▁call	-837
aint	-838
ger	-839
▁years	-840
▁point	-841
oid	-842
▁aut	-843
▁find	-844
▁How	-845
cept	-846
ince	-847
▁inte	-848
](#	-849
rm	-850
arch	-851
▁di	-852
▁way	-853
▁mon	-854
▁partic	-855
ward	-856
velop	-857
▁vari	-858
val	-859
▁those	-860
yp	-861
oci	-862
^2	-863
ym	-864
▁long	-865
▁both	-866
to	-867
ense	-868
ug	-869
ason	-870
rest	-871
ases	-872
▁now	-873
rent	-874
▁want	-875
▁x	-876
▁Al	-877
irect	-878
ines	-879
ample	-880
atic	-881
cent	-882
▁mat	-883
und	-884
▁look	-885
▁very	-886
▁tri	-887
▁found	-888
▁med	-889
▁car	-890
▁appro	-891
::	-892
day	-893
▁exper	-894
▁being	-895
▁And	-896
str	-897
14	-898
▁bel	-899
▁fil	-900
▁el	-901
▁pers	-902
led	-903
ages	-904
▁many	-905
air	-906
▁before	-907
▁But	-908
ices	-909
▁play	-910
▁mem	-911
▁prote	-912
▁number	-913
▁1.	-914
AT	-915
alth	-916
▁Pro	-917
ared	-918
]\]	-919
▁ser	-920
ray	-921
]{}	-922
sh	-923
In	-924
$\	-925
":	-926
ature	-927
cer	-928
▁op	-929
25	-930
3.	-931
pr	-932
tt	-933
}{	-934
ified	-935
ife	-936
over	-937
▁respon	-938
▁don	-939
ateg	-940
▁–	-941
▁che	-942
left	-943
▁You	-944
▁here	-945
aking	-946
ran	-947
▁ins	-948
formation	-949
erg	-950
▁process	-951
ES	-952
eng	-953
▁</	-954
▁court	-955
▁str	-956
ression	-957
yl	-958
▁value	-959
▁model	-960
▁hel	-961
fl	-962
▁rep	-963
app	-964
AR	-965
▁report	-966
▁while	-967
ash	-968
ively	-969
ody	-970
ting	-971
upp	-972
18	-973
▁made	-974
mathb	-975
▁gu	-976
▁\[[@	-977
min	-978
▁level	-979
▁sol	-980
▁study	-981
line	-982
▁giv	-983
▁present	-984
ired	-985
tr	-986
▁develop	-987
view	-988
3,	-989
▁down	-990
ism	-991
ness	-992
▁good	-993
gg	-994
ved	-995
',	-996
▁support	-997
▁lar	-998
---	-999
ument	-1000
ained	-1001
▁start	-1002
ven	-1003
▁count	-1004
▁disc	-1005
▁think	-1006
▁equ	-1007
cul	-1008
NA	-1009
▁second	-1010
ann	-1011
5,	-1012
▁prog	-1013
▁12	-1014
://	-1015
▁serv	-1016
ave	-1017
ually	-1018
.”	-1019
("	-1020
igned	-1021
▁term	-1022
▁own	-1023
0000	-1024
17	-1025
mon	-1026
ision	-1027
way	-1028
▁hand	-1029
ization	-1030
▁non	-1031
▁much	-1032
ole	-1033
▁est	-1034
▁three	-1035
▁patients	-1036
$.	-1037
32	-1038
fer	-1039
▁method	-1040
▁read	-1041
CR	-1042
▁dep	-1043
lement	-1044
OR	-1045
ght	-1046
4.	-1047
ider	-1048
$,	-1049
ale	-1050
▁ant	-1051
oad	-1052
ars	-1053
gan	-1054
▁order	-1055
▁during	-1056
▁without	-1057
ality	-1058
▁poss	-1059
ffic	-1060
abel	-1061
_1	-1062
▁et	-1063
oun	-1064
uss	-1065
4,	-1066
▁cells	-1067
▁name	-1068
ential	-1069
ency	-1070
▁,	-1071
cri	-1072
50	-1073
eta	-1074
cial	-1075
30	-1076
ng	-1077
ource	-1078
ton	-1079
any	-1080
▁cre	-1081
arly	-1082
▁activ	-1083
med	-1084
▁line	-1085
ner	-1086
use	-1087
▁group	-1088
▁proper	-1089
The	-1090
ided	-1091
idence	-1092
ify	-1093
amp	-1094
▁perform	-1095
ists	-1096
▁z	-1097
▁help	-1098
amb	-1099
▁18	-1100
of	-1101
name	-1102
▁av	-1103
▁type	-1104
▁cle	-1105
▁lead	-1106
ability	-1107
▁iss	-1108
▁last	-1109
raph	-1110
▁oper	-1111
▁against	-1112
▁gl	-1113
▁proble	-1114
ters	-1115
▁small	-1116
IT	-1117
ron	-1118
ving	-1119
ulation	-1120
5.	-1121
▁signific	-1122
▁Tr	-1123
▁(2	-1124
ouse	-1125
EN	-1126
ather	-1127
man	-1128
99	-1129
ank	-1130
▁run	-1131
▁Is	-1132
ross	-1133
ST	-1134
▁control	-1135
ration	-1136
▁There	-1137
ote	-1138
▁appe	-1139
▁pur	-1140
▁Con	-1141
aim	-1142
▁law	-1143
acter	-1144
▁must	-1145
▁20	-1146
▁child	-1147
ots	-1148
**2	-1149
▁person	-1150
1)	-1151
ral	-1152
itive	-1153
▁met	-1154
,"	-1155
▁still	-1156
pha	-1157
();	-1158
ww	-1159
▁say	-1160
ention	-1161
▁information	-1162
▁conf	-1163
alk	-1164
▁X	-1165
▁direct	-1166
irc	-1167
▁De	-1168
▁expl	-1169
▁let	-1170
▁inc	-1171
rt	-1172
▁take	-1173
ysis	-1174
▁ed	-1175
ml	-1176
da	-1177
▁cent	-1178
ek	-1179
▁Ex	-1180
▁err	-1181
▁New	-1182
hip	-1183
-0	-1184
▁To	-1185
▁fin	-1186
urther	-1187
ds	-1188
serv	-1189
▁post	-1190
▁So	-1191
].	-1192
▁!	-1193
▁struct	-1194
▁bre	-1195
mathcal	-1196
chn	-1197
▁day	-1198
ination	-1199
▁quest	-1200
▁16	-1201
oh	-1202
▁treat	-1203
yn	-1204
ames	-1205
▁som	-1206
▁results	-1207
ier	-1208
ology	-1209
▁ident	-1210
▁meas	-1211
less	-1212
▁2.	-1213
ides	-1214
atch	-1215
▁elect	-1216
▁stand	-1217
▁fam	-1218
▁significant	-1219
▁*/	-1220
vious	-1221
be	-1222
▁following	-1223
▁ca	-1224
)\	-1225
▁Ad	-1226
▁mult	-1227
ission	-1228
ets	-1229
▁determ	-1230
▁However	-1231
AL	-1232
agn	-1233
}(	-1234
oot	-1235
40	-1236
ium	-1237
▁contin	-1238
_2	-1239
me	-1240
ience	-1241
▁Sh	-1242
▁allow	-1243
ah	-1244
ital	-1245
duct	-1246
7.	-1247
ately	-1248
eral	-1249
================	-1250
ead	-1251
▁lim	-1252
Fig	-1253
▁15	-1254
ording	-1255
,\	-1256
work	-1257
land	-1258
meric	-1259
▁condition	-1260
aj	-1261
▁stat	-1262
▁within	-1263
ploy	-1264
▁On	-1265
ains	-1266
aterial	-1267
36	-1268
son	-1269
▁dev	-1270
ished	-1271
ured	-1272
▁ref	-1273
ule	-1274
▁>	-1275
ior	-1276
▁rece	-1277
▁No	-1278
7,	-1279
▁current	-1280
▁since	-1281
CT	-1282
not	-1283
ackage	-1284
ural	-1285
▁redu	-1286
80	-1287
▁Z	-1288
▁care	-1289
alpha	-1290
ional	-1291
iff	-1292
▁interest	-1293
▁Cl	-1294
AN	-1295
▁addition	-1296
▁They	-1297
ams	-1298
▁wr	-1299
▁health	-1300
▁around	-1301
▁real	-1302
▁hum	-1303
ivers	-1304
▁gover	-1305
rid	-1306
▁$$\	-1307
▁--	-1308
ently	-1309
▁world	-1310
▁mark	-1311
▁self	-1312
/2	-1313
az	-1314
▁invest	-1315
▁life	-1316
▁pass	-1317
ived	-1318
que	-1319
▁open	-1320
▁another	-1321
bl	-1322
▁tem	-1323
▁going	-1324
▁arg	-1325
,”	-1326
arent	-1327
chool	-1328
▁field	-1329
crib	-1330
8,	-1331
lex	-1332
▁try	-1333
ott	-1334
amet	-1335
▁art	-1336
resent	-1337
ond	-1338
akes	-1339
▁commun	-1340
33	-1341
▁list	-1342
▁example	-1343
▁del	-1344
▁including	-1345
▁imp	-1346
ID	-1347
bers	-1348
]\].	-1349
▁power	-1350
▁occ	-1351
▁great	-1352
▁claim	-1353
ane	-1354
ves	-1355
ither	-1356
ives	-1357
********	-1358
8.	-1359
gen	-1360
face	-1361
hat	-1362
sec	-1363
▁given	-1364
self	-1365
^{\	-1366
AS	-1367
▁sl	-1368
▁respect	-1369
ury	-1370
▁beh	-1371
ribut	-1372
▁All	-1373
▁bas	-1374
▁govern	-1375
arg	-1376
▁head	-1377
▁program	-1378
6.	-1379
rel	-1380
▁Americ	-1381
▁file	-1382
▁associ	-1383
arget	-1384
▁chang	-1385
▁—	-1386
▁{#	-1387
▁She	-1388
Con	-1389
vert	-1390
▁might	-1391
lection	-1392
arn	-1393
ably	-1394
6,	-1395
ways	-1396
▁month	-1397
▁less	-1398
LE	-1399
hor	-1400
▁pot	-1401
▁When	-1402
ength	-1403
ining	-1404
▁adv	-1405
▁Ph	-1406
▁gra	-1407
ump	-1408
▁hig	-1409
22	-1410
▁low	-1411
▁applic	-1412
iness	-1413
▁place	-1414
yt	-1415
arm	-1416
▁based	-1417
cing	-1418
ope	-1419
roll	-1420
▁(19	-1421
ategory	-1422
▁cr	-1423
▁top	-1424
34	-1425
▁ve	-1426
▁too	-1427
ference	-1428
▁mean	-1429
▁vis	-1430
▁cap	-1431
▁Pl	-1432
35	-1433
alse	-1434
aining	-1435
▁object	-1436
▁rele	-1437
icro	-1438
_0	-1439
ety	-1440
ery	-1441
ault	-1442
ends	-1443
elta	-1444
▁14	-1445
▁{\	-1446
ocument	-1447
alcul	-1448
▁really	-1449
ivid	-1450
ething	-1451
▁Ind	-1452
▁grow	-1453
htt	-1454
▁prob	-1455
ts	-1456
▁home	-1457
('	-1458
▁few	-1459
1}	-1460
▁mot	-1461
▁analysis	-1462
▁pop	-1463
▁wom	-1464
▁indic	-1465
stand	-1466
▁evidence	-1467
64	-1468
▁observ	-1469
Pro	-1470
▁bus	-1471
ought	-1472
▁sing	-1473
▁%	-1474
ambda	-1475
▁techn	-1476
▁path	-1477
▁opt	-1478
▁best	-1479
▁next	-1480
def	-1481
▁obt	-1482
1-	-1483
leg	-1484
mb	-1485
▁happ	-1486
osed	-1487
▁whether	-1488
▁product	-1489
reg	-1490
▁important	-1491
RE	-1492
▁common	-1493
att	-1494
ised	-1495
▁fr	-1496
for	-1497
▁four	-1498
els	-1499
37	-1500
ser	-1501
ding	-1502
abl	-1503
▁change	-1504
▁fail	-1505
24	-1506
▁left	-1507
rap	-1508
▁leg	-1509
▁expect	-1510
▁sugg	-1511
ware	-1512
oss	-1513
▁bo	-1514
▁view	-1515
▁suggest	-1516
9.	-1517
ext	-1518
▁particular	-1519
▁Le	-1520
IC	-1521
▁prof	-1522
▁Supp	-1523
ret	-1524
plic	-1525
amma	-1526
ification	-1527
▁App	-1528
▁gr	-1529
ertain	-1530
label	-1531
▁bi	-1532
▁US	-1533
▁put	-1534
▁At	-1535
opy	-1536
▁describ	-1537
hib	-1538
▁seem	-1539
che	-1540
ittle	-1541
ccess	-1542
▁That	-1543
used	-1544
▁light	-1545
thing	-1546
cur	-1547
version	-1548
por	-1549
ergy	-1550
▁unt	-1551
▁belie	-1552
▁invol	-1553
▁199	-1554
mu	-1555
action	-1556
mathbb	-1557
▁defend	-1558
▁above	-1559
▁something	-1560
60	-1561
▁large	-1562
mun	-1563
here	-1564
▁typ	-1565
ples	-1566
IS	-1567
▁Res	-1568
requ	-1569
rop	-1570
AC	-1571
bs	-1572
3)	-1573
▁else	-1574
▁sit	-1575
▁size	-1576
▁turn	-1577
▁)	-1578
ered	-1579
igma	-1580
▁local	-1581
▁reason	-1582
▁These	-1583
9,	-1584
▁sk	-1585
38	-1586
▁rese	-1587
ED	-1588
ilar	-1589
pi	-1590
ene	-1591
▁consider	-1592
▁true	-1593
egin	-1594
▁water	-1595
▁better	-1596
ik	-1597
div	-1598
▁problem	-1599
ormal	-1600
▁treatment	-1601
▁eas	-1602
col	-1603
▁never	-1604
▁ask	-1605
by	-1606
ended	-1607
ird	-1608
co	-1609
▁mov	-1610
▁build	-1611
▁position	-1612
▁==	-1613
ailable	-1614
$$	-1615
epend	-1616
▁least	-1617
▁possible	-1618
orn	-1619
▁tot	-1620
ats	-1621
▁priv	-1622
▁1,	-1623
part	-1624
▁impro	-1625
▁due	-1626
▁`	-1627
▁opp	-1628
▁character	-1629
ask	-1630
▁ris	-1631
/(	-1632
▁0.0	-1633
▁init	-1634
▁pay	-1635
Ex	-1636
▁represent	-1637
▁Col	-1638
veral	-1639
Name	-1640
=\	-1641
ividual	-1642
new	-1643
equ	-1644
▁hy	-1645
Cl	-1646
▁free	-1647
▁days	-1648
▁17	-1649
cont	-1650
illion	-1651
unt	-1652
iron	-1653
▁things	-1654
▁State	-1655
▁/*	-1656
icle	-1657
▁rest	-1658
ajor	-1659
ina	-1660
▁ide	-1661
ho	-1662
play	-1663
iod	-1664
ush	-1665
aring	-1666
____	-1667
▁record	-1668
▁trial	-1669
▁offic	-1670
▁question	-1671
▁shown	-1672
ending	-1673
inf	-1674
idth	-1675
▁little	-1676
▁having	-1677
▁30	-1678
▁further	-1679
];	-1680
▁organ	-1681
▁net	-1682
_\	-1683
back	-1684
▁employ	-1685
ET	-1686
imal	-1687
data	-1688
▁void	-1689
begin	-1690
▁3.	-1691
▁code	-1692
▁government	-1693
▁sum	-1694
▁United	-1695
▁gre	-1696
▁old	-1697
39	-1698
sum	-1699
▁human	-1700
▁big	-1701
ological	-1702
}_{	-1703
▁es	-1704
ern	-1705
aps	-1706
▁jud	-1707
▁hist	-1708
▁previous	-1709
▁Court	-1710
▁prom	-1711
▁game	-1712
45	-1713
package	-1714
▁week	-1715
atory	-1716
▁den	-1717
27	-1718
ances	-1719
▁provide	-1720
▁main	-1721
etic	-1722
▁sw	-1723
▁cost	-1724
▁bro	-1725
▁individual	-1726
ream	-1727
bar	-1728
▁come	-1729
org	-1730
▁give	-1731
▁pa	-1732
▁expression	-1733
nect	-1734
▁potential	-1735
itor	-1736
▁div	-1737
angle	-1738
sel	-1739
▁hard	-1740
▁100	-1741
):	-1742
▁known	-1743
▁either	-1744
▁rad	-1745
▁Sc	-1746
eps	-1747
phi	-1748
▁similar	-1749
▁available	-1750
....	-1751
eb	-1752
nal	-1753
▁pred	-1754
▁comb	-1755
iple	-1756
dd	-1757
uro	-1758
▁called	-1759
aligned	-1760
usion	-1761
▁vol	-1762
rain	-1763
mod	-1764
28	-1765
▁general	-1766
cle	-1767
▁always	-1768
▁cho	-1769
▁until	-1770
▁ben	-1771
though	-1772
},	-1773
rict	-1774
ception	-1775
▁action	-1776
▁single	-1777
▁fac	-1778
Type	-1779
▁school	-1780
▁got	-1781
}$$	-1782
ours	-1783
inc	-1784
▁side	-1785
AP	-1786
▁inf	-1787
▁project	-1788
▁Category	-1789
It	-1790
▁feel	-1791
ctor	-1792
▁family	-1793
55	-1794
▁values	-1795
HE	-1796
▁specific	-1797
▁team	-1798
▁dise	-1799
▁Sp	-1800
▁Ar	-1801
raw	-1802
70	-1803
ocial	-1804
ental	-1805
▁Bl	-1806
clude	-1807
Id	-1808
}^{	-1809
▁means	-1810
▁phys	-1811
▁(\	-1812
▁lik	-1813
▁material	-1814
▁cases	-1815
▁sequ	-1816
opt	-1817
▁major	-1818
itle	-1819
▁circ	-1820
uff	-1821
▁children	-1822
pone	-1823
▁several	-1824
usepackage	-1825
itted	-1826
▁orig	-1827
####	-1828
RO	-1829
▁super	-1830
▁able	-1831
▁error	-1832
lambda	-1833
▁times	-1834
ten	-1835
▁key	-1836
ns	-1837
▁der	-1838
ready	-1839
ries	-1840
▁higher	-1841
▁plan	-1842
mit	-1843
cript	-1844
ison	-1845
▁area	-1846
oor	-1847
▁target	-1848
roup	-1849
▁tre	-1850
48	-1851
▁hold	-1852
yle	-1853
essage	-1854
▁abs	-1855
2)	-1856
▁studies	-1857
gment	-1858
▁won	-1859
LL	-1860
▁body	-1861
iversity	-1862
oper	-1863
▁infl	-1864
indow	-1865
osp	-1866
ressed	-1867
▁period	-1868
201	-1869
▁var	-1870
▁rate	-1871
▁standard	-1872
26	-1873
▁total	-1874
lected	-1875
ney	-1876
iol	-1877
ored	-1878
String	-1879
▁full	-1880
key	-1881
29	-1882
pped	-1883
respon	-1884
ystem	-1885
▁11	-1886
oney	-1887
▁energy	-1888
▁understand	-1889
ION	-1890
ourse	-1891
▁move	-1892
75	-1893
▁One	-1894
▁States	-1895
▁access	-1896
▁final	-1897
▁neg	-1898
rad	-1899
iting	-1900
▁review	-1901
aut	-1902
mission	-1903
conom	-1904
ember	-1905
fficient	-1906
▁Or	-1907
ustom	-1908
▁business	-1909
add	-1910
pm	-1911
▁exist	-1912
**3	-1913
▁After	-1914
rior	-1915
ences	-1916
▁space	-1917
aintiff	-1918
ume	-1919
▁keep	-1920
span	-1921
uck	-1922
▁short	-1923
▁With	-1924
▁prim	-1925
Ch	-1926
▁later	-1927
rug	-1928
qrt	-1929
utes	-1930
ables	-1931
empt	-1932
▁25	-1933
ift	-1934
▁investig	-1935
{{\	-1936
▁id	-1937
ering	-1938
iction	-1939
ged	-1940
▁far	-1941
▁reported	-1942
▁discuss	-1943
▁mass	-1944
▁associated	-1945
verage	-1946
▁crit	-1947
▁htt	-1948
▁response	-1949
▁...	-1950
▁among	-1951
ler	-1952
string	-1953
ued	-1954
alf	-1955
ibility	-1956
▁levels	-1957
▁sent	-1958
▁paramet	-1959
cription	-1960
44	-1961
▁already	-1962
▁require	-1963
▁why	-1964
▁lot	-1965
▁Co	-1966
▁inj	-1967
▁${\	-1968
▁log	-1969
urs	-1970
▁amount	-1971
▁pract	-1972
▁strong	-1973
Com	-1974
ister	-1975
outh	-1976
olution	-1977
69	-1978
▁required	-1979
ape	-1980
ey	-1981
▁along	-1982
nces	-1983
viron	-1984
▁certain	-1985
mathbf	-1986
ators	-1987
ling	-1988
▁la	-1989
chan	-1990
ava	-1991
▁subject	-1992
▁Suppose	-1993
aken	-1994
place	-1995
▁issue	-1996
▁diff	-1997
asing	-1998
})	-1999
iving	-2000
▁percent	-2001
▁sure	-2002
▁men	-2003
ivity	-2004
sub	-2005
▁lay	-2006
cd	-2007
▁ele	-2008
▁women	-2009
▁dom	-2010
▁design	-2011
▁=>	-2012
AM	-2013
▁press	-2014
▁experim	-2015
")	-2016
▁13	-2017
go	-2018
ilon	-2019
sw	-2020
SE	-2021
▁fore	-2022
ograph	-2023
▁often	-2024
▁done	-2025
side	-2026
cell	-2027
icy	-2028
rect	-2029
▁terms	-2030
88	-2031
sequ	-2032
idd	-2033
▁says	-2034
▁port	-2035
▁author	-2036
▁vir	-2037
▁development	-2038
../	-2039
▁See	-2040
td	-2041
▁check	-2042
▁activity	-2043
100	-2044
ension	-2045
▁however	-2046
▁My	-2047
rist	-2048
ids	-2049
ribution	-2050
ee	-2051
amples	-2052
▁thought	-2053
90	-2054
table	-2055
▁event	-2056
-\	-2057
▁groups	-2058
osis	-2059
▁string	-2060
▁4.	-2061
ands	-2062
▁24	-2063
▁war	-2064
▁0,	-2065
66	-2066
▁age	-2067
UT	-2068
95	-2069
ique	-2070
><	-2071
▁success	-2072
beta	-2073
▁sens	-2074
lete	-2075
mm	-2076
▁enc	-2077
ogn	-2078
▁2*	-2079
^\	-2080
▁polit	-2081
▁private	-2082
▁sal	-2083
orth	-2084
▁Rep	-2085
iver	-2086
▁coun	-2087
ga	-2088
▁away	-2089
▁include	-2090
IG	-2091
0.0	-2092
▁sat	-2093
-00	-2094
▁didn	-2095
▁lower	-2096
arrow	-2097
aster	-2098
ising	-2099
////	-2100
▁fri	-2101
▁account	-2102
▁‘	-2103
▁aff	-2104
acy	-2105
Val	-2106
▁risk	-2107
test	-2108
ources	-2109
▁base	-2110
AD	-2111
▁compared	-2112
▁micro	-2113
sigma	-2114
▁fund	-2115
▁provided	-2116
ection	-2117
ev	-2118
1]	-2119
▁user	-2120
▁eng	-2121
4)	-2122
eq	-2123
▁50	-2124
▁though	-2125
ched	-2126
stit	-2127
uation	-2128
▁relations	-2129
▁-2	-2130
▁according	-2131
▁Can	-2132
▁text	-2133
▁Gen	-2134
rem	-2135
ley	-2136
▁enough	-2137
aces	-2138
gin	-2139
ories	-2140
▁cou	-2141
▁([	-2142
▁agree	-2143
date	-2144
ores	-2145
▁section	-2146
▁upon	-2147
▁conditions	-2148
omet	-2149
▁course	-2150
▁necess	-2151
ohn	-2152
▁making	-2153
65	-2154
77	-2155
▁dou	-2156
▁role	-2157
▁By	-2158
▁working	-2159
▁kind	-2160
FF	-2161
▁range	-2162
▁research	-2163
ival	-2164
this	-2165
▁food	-2166
▁source	-2167
lease	-2168
▁increase	-2169
▁told	-2170
▁effects	-2171
angu	-2172
pecial	-2173
▁thing	-2174
▁Be	-2175
▁changes	-2176
oph	-2177
class	-2178
▁property	-2179
cret	-2180
▁tax	-2181
▁benef	-2182
vironment	-2183
▁image	-2184
ges	-2185
▁compon	-2186
▁Then	-2187
▁months	-2188
uture	-2189
▁respons	-2190
ubl	-2191
II	-2192
▁([@	-2193
OT	-2194
http	-2195
▁Fig	-2196
></	-2197
▁request	-2198
ache	-2199
ession	-2200
▁IN	-2201
▁Mr	-2202
▁comput	-2203
▁bit	-2204
▁dem	-2205
atures	-2206
ibr	-2207
AG	-2208
ties	-2209
▁flu	-2210
code	-2211
▁detail	-2212
▁Mar	-2213
▁Ass	-2214
▁ann	-2215
iation	-2216
▁break	-2217
ij	-2218
▁increased	-2219
▁complet	-2220
▁mil	-2221
▁service	-2222
▁protein	-2223
▁factors	-2224
order	-2225
List	-2226
▁fun	-2227
▁conduct	-2228
▁seen	-2229
▁dri	-2230
ground	-2231
medi	-2232
▁separ	-2233
uit	-2234
▁past	-2235
▁University	-2236
▁Int	-2237
▁phot	-2238
▁observed	-2239
▁mechan	-2240
▁become	-2241
2}	-2242
-3	-2243
▁create	-2244
▁complex	-2245
Cont	-2246
▁May	-2247
rodu	-2248
▁defendant	-2249
UR	-2250
▁tell	-2251
▁particip	-2252
most	-2253
▁toget	-2254
▁inde	-2255
▁together	-2256
▁establ	-2257
artment	-2258
▁regard	-2259
▁deb	-2260
uration	-2261
▁cy	-2262
▁doesn	-2263
▁cannot	-2264
html	-2265
▁$(	-2266
ians	-2267
▁foc	-2268
Res	-2269
▁±	-2270
▁country	-2271
▁q	-2272
DE	-2273
▁job	-2274
CC	-2275
▁},	-2276
▁measure	-2277
▁disease	-2278
▁third	-2279
"}).	-2280
enn	-2281
▁estim	-2282
▁lo	-2283
minist	-2284
icense	-2285
rix	-2286
▁static	-2287
78	-2288
roid	-2289
▁cult	-2290
▁book	-2291
}_	-2292
▁More	-2293
istic	-2294
▁content	-2295
mp	-2296
68	-2297
ruction	-2298
▁calcul	-2299
rr	-2300
ules	-2301
▁early	-2302
inter	-2303
value	-2304
▁frequ	-2305
▁air	-2306
▁money	-2307
ortun	-2308
mathrm	-2309
▁social	-2310
▁normal	-2311
▁econom	-2312
▁ep	-2313
Th	-2314
▁Ob	-2315
▁structure	-2316
pper	-2317
*(	-2318
▁described	-2319
▁viol	-2320
");	-2321
▁prior	-2322
▁clin	-2323
bo	-2324
▁multiple	-2325
▁version	-2326
sqrt	-2327
ependent	-2328
▁clear	-2329
▁2,	-2330
af	-2331
umber	-2332
▁mor	-2333
ING	-2334
head	-2335
23	-2336
ucle	-2337
▁behav	-2338
▁special	-2339
ai	-2340
▁AN	-2341
▁positive	-2342
▁points	-2343
ript	-2344
ches	-2345
oms	-2346
var	-2347
mber	-2348
View	-2349
▁max	-2350
▁deg	-2351
▁season	-2352
]).	-2353
▁death	-2354
mat	-2355
▁company	-2356
▁signal	-2357
▁198	-2358
▁meet	-2359
200	-2360
▁drug	-2361
inary	-2362
▁actually	-2363
▁across	-2364
www	-2365
gamma	-2366
uf	-2367
gr	-2368
ixed	-2369
imum	-2370
▁Not	-2371
▁initial	-2372
▁surface	-2373
49	-2374
▁mom	-2375
▁quant	-2376
▁Te	-2377
▁John	-2378
▁concer	-2379
file	-2380
▁American	-2381
load	-2382
▁others	-2383
comm	-2384
▁En	-2385
ony	-2386
time	-2387
ilde	-2388
▁CO	-2389
▁rather	-2390
ceed	-2391
▁ear	-2392
▁likely	-2393
log	-2394
▁correspon	-2395
posed	-2396
delta	-2397
▁below	-2398
▁performed	-2399
▁love	-2400
irm	-2401
▁million	-2402
▁red	-2403
▁Do	-2404
▁shows	-2405
▁weight	-2406
2-	-2407
rho	-2408
ounds	-2409
▁factor	-2410
▁cut	-2411
47	-2412
▁market	-2413
%)	-2414
▁members	-2415
itch	-2416
▁eval	-2417
off	-2418
ogen	-2419
ened	-2420
▁spect	-2421
▁once	-2422
▁$$	-2423
▁showed	-2424
▁false	-2425
▁Fl	-2426
▁protect	-2427
▁systems	-2428
▁wa	-2429
▁detect	-2430
▁demon	-2431
▁Pat	-2432
▁talk	-2433
5)	-2434
▁five	-2435
▁dam	-2436
▁pick	-2437
67	-2438
ening	-2439
\_	-2440
▁approach	-2441
▁doing	-2442
▁mar	-2443
▁ver	-2444
atter	-2445
▁obtained	-2446
pec	-2447
▁connect	-2448
▁bar	-2449
▁(*	-2450
▁cause	-2451
▁application	-2452
▁Car	-2453
▁affect	-2454
▁site	-2455
▁40	-2456
Data	-2457
ensity	-2458
+\	-2459
▁ey	-2460
cular	-2461
bit	-2462
sy	-2463
▁limit	-2464
bib	-2465
ung	-2466
idered	-2467
▁Sim	-2468
▁matter	-2469
Ob	-2470
▁soft	-2471
▁various	-2472
MP	-2473
▁writ	-2474
obal	-2475
▁Cal	-2476
▁address	-2477
itud	-2478
▁Im	-2479
▁decre	-2480
▁temper	-2481
SS	-2482
▁added	-2483
oll	-2484
icult	-2485
▁mus	-2486
▁cancer	-2487
▁Ste	-2488
▁makes	-2489
▁considered	-2490
▁Acc	-2491
▁house	-2492
▁experience	-2493
▁anti	-2494
▁item	-2495
ried	-2496
▁scre	-2497
▁related	-2498
▁came	-2499
▁flow	-2500
▁occur	-2501
AB	-2502
ones	-2503
We	-2504
▁took	-2505
resh	-2506
▁defined	-2507
uses	-2508
onal	-2509
▁Act	-2510
iter	-2511
▁taken	-2512
CH	-2513
▁future	-2514
plement	-2515
umn	-2516
▁blood	-2517
▁concent	-2518
lim	-2519
rim	-2520
▁clos	-2521
abor	-2522
ager	-2523
▁\\	-2524
▁block	-2525
0)	-2526
▁null	-2527
▁demonstr	-2528
▁loss	-2529
▁Am	-2530
------------	-2531
▁Here	-2532
▁Def	-2533
▁mut	-2534
▁parent	-2535
CO	-2536
▁deal	-2537
ino	-2538
▁God	-2539
▁Cent	-2540
enc	-2541
anguage	-2542
big	-2543
▁whole	-2544
partial	-2545
▁consist	-2546
▁solution	-2547
▁hom	-2548
▁Christ	-2549
uild	-2550
▁community	-2551
▁fra	-2552
ires	-2553
6)	-2554
98	-2555
')	-2556
▁yet	-2557
▁relationship	-2558
ero	-2559
▁ever	-2560
▁Cont	-2561
pping	-2562
▁states	-2563
▁ur	-2564
leq	-2565
▁minutes	-2566
Ar	-2567
▁Ab	-2568
xim	-2569
wards	-2570
andom	-2571
▁decl	-2572
$-	-2573
▁rat	-2574
▁Med	-2575
xi	-2576
▁device	-2577
▁night	-2578
▁§	-2579
▁While	-2580
▁maint	-2581
▁decision	-2582
▁assess	-2583
illed	-2584
no	-2585
~~	-2586
ris	-2587
▁included	-2588
aff	-2589
▁contract	-2590
▁3*	-2591
▁sex	-2592
▁Man	-2593
ply	-2594
ball	-2595
▁difficult	-2596
chie	-2597
▁immun	-2598
▁region	-2599
▁exam	-2600
see	-2601
▁land	-2602
theta	-2603
▁environment	-2604
ulated	-2605
aged	-2606
verse	-2607
▁cross	-2608
▁inhib	-2609
iding	-2610
▁respectively	-2611
▁camp	-2612
▁custom	-2613
▁believe	-2614
br	-2615
▁table	-2616
wh	-2617
▁received	-2618
hing	-2619
▁Now	-2620
▁additional	-2621
▁dat	-2622
rec	-2623
▁magn	-2624
now	-2625
ober	-2626
▁appl	-2627
ledge	-2628
pose	-2629
-4	-2630
mitted	-2631
omega	-2632
▁went	-2633
util	-2634
*,	-2635
1){	-2636
Col	-2637
ached	-2638
rc	-2639
▁Our	-2640
▁link	-2641
{1	-2642
apt	-2643
▁card	-2644
▁pan	-2645
▁chall	-2646
],[@	-2647
▁ground	-2648
▁close	-2649
▁defin	-2650
ideo	-2651
▁compl	-2652
▁network	-2653
▁Me	-2654
atus	-2655
inding	-2656
aging	-2657
mary	-2658
▁Mon	-2659
▁half	-2660
size	-2661
▁significantly	-2662
izing	-2663
ribute	-2664
ender	-2665
▁bound	-2666
etition	-2667
▁entire	-2668
▁dig	-2669
dro	-2670
▁Mc	-2671
▁ce	-2672
▁patient	-2673
▁simple	-2674
▁trying	-2675
raft	-2676
▁-1	-2677
▁ill	-2678
itting	-2679
▁Eng	-2680
lying	-2681
▁fav	-2682
▁growth	-2683
odes	-2684
▁dr	-2685
▁city	-2686
▁sus	-2687
▁mind	-2688
▁input	-2689
▁accept	-2690
}}\	-2691
une	-2692
▁six	-2693
OS	-2694
wise	-2695
To	-2696
ternal	-2697
▁face	-2698
gl	-2699
▁nat	-2700
agement	-2701
tau	-2702
ederal	-2703
▁length	-2704
▁![	-2705
▁today	-2706
year	-2707
▁Thus	-2708
IR	-2709
istance	-2710
ensive	-2711
▁Pol	-2712
net	-2713
▁plaintiff	-2714
▁exec	-2715
Figure	-2716
reed	-2717
▁history	-2718
▁needs	-2719
****************	-2720
▁Count	-2721
uk	-2722
▁tw	-2723
▁Cor	-2724
.0	-2725
▁improve	-2726
▁Dep	-2727
amm	-2728
▁asked	-2729
21	-2730
pecially	-2731
▁methods	-2732
▁indu	-2733
IL	-2734
miss	-2735
▁series	-2736
▁performance	-2737
nu	-2738
▁subst	-2739
aced	-2740
bf	-2741
▁bring	-2742
App	-2743
▁near	-2744
▁print	-2745
▁contact	-2746
▁win	-2747
position	-2748
▁0;	-2749
infty	-2750
▁tum	-2751
▁difference	-2752
}{\	-2753
ux	-2754
▁issues	-2755
▁br	-2756
▁via	-2757
▁attack	-2758
▁&&	-2759
▁adj	-2760
▁Since	-2761
▁hours	-2762
57	-2763
▁THE	-2764
cher	-2765
▁services	-2766
97	-2767
▁problems	-2768
lt	-2769
▁expected	-2770
ication	-2771
▁pattern	-2772
▁paper	-2773
▁therefore	-2774
▁party	-2775
▁thus	-2776
uly	-2777
▁correct	-2778
US	-2779
isf	-2780
IP	-2781
▁prevent	-2782
nection	-2783
▁administ	-2784
▁involved	-2785
3-	-2786
IM	-2787
ops	-2788
ike	-2789
▁eff	-2790
▁getting	-2791
ama	-2792
▁heart	-2793
times	-2794
hel	-2795
▁educ	-2796
based	-2797
fully	-2798
▁emb	-2799
ENT	-2800
ocal	-2801
▁Euro	-2802
.3	-2803
▁Qu	-2804
Ph	-2805
▁almost	-2806
▁held	-2807
▁Pres	-2808
▁needed	-2809
▁assum	-2810
include	-2811
dis	-2812
++	-2813
CL	-2814
▁Min	-2815
▁looking	-2816
▁room	-2817
ips	-2818
▁begin	-2819
▁anything	-2820
▁instead	-2821
▁population	-2822
▁host	-2823
▁works	-2824
▁(\[	-2825
▁Des	-2826
▁official	-2827
▁achie	-2828
▁implement	-2829
ief	-2830
.)	-2831
▁motion	-2832
▁film	-2833
ynam	-2834
ilt	-2835
orld	-2836
▁attempt	-2837
ilities	-2838
▁color	-2839
yz	-2840
▁assert	-2841
58	-2842
uments	-2843
▁recent	-2844
▁http	-2845
▁output	-2846
box	-2847
▁lines	-2848
▁miss	-2849
comes	-2850
const	-2851
";	-2852
▁Trump	-2853
▁black	-2854
PE	-2855
▁remov	-2856
erc	-2857
vant	-2858
▁element	-2859
▁href	-2860
atively	-2861
iles	-2862
olve	-2863
▁ang	-2864
▁publ	-2865
oo	-2866
▁display	-2867
▁document	-2868
▁coll	-2869
])	-2870
Value	-2871
▁answ	-2872
▁shall	-2873
▁gene	-2874
atal	-2875
itten	-2876
▁Ag	-2877
▁Some	-2878
▁step	-2879
▁tool	-2880
Re	-2881
▁students	-2882
pre	-2883
▁introdu	-2884
des	-2885
▁28	-2886
body	-2887
state	-2888
sg	-2889
Table	-2890
▁production	-2891
▁/**	-2892
}$,	-2893
▁fall	-2894
^*	-2895
gest	-2896
▁seems	-2897
▁page	-2898
▁quality	-2899
▁load	-2900
▁predict	-2901
IV	-2902
▁||	-2903
46	-2904
▁nothing	-2905
▁config	-2906
▁National	-2907
▁models	-2908
▁provides	-2909
▁distribution	-2910
▁media	-2911
selves	-2912
ros	-2913
▁influ	-2914
▁Inc	-2915
▁policy	-2916
}$.	-2917
width	-2918
UN	-2919
▁police	-2920
rapy	-2921
▁reve	-2922
▁search	-2923
ensure	-2924
my	-2925
anced	-2926
▁story	-2927
▁comes	-2928
▁proced	-2929
hy	-2930
▁indust	-2931
▁-0.	-2932
▁necessary	-2933
▁Bo	-2934
▁learn	-2935
▁York	-2936
▁recogn	-2937
▁itself	-2938
▁average	-2939
list	-2940
▁fig	-2941
▁started	-2942
▁ste	-2943
ales	-2944
▁idea	-2945
like	-2946
word	-2947
▁nucle	-2948
▁-3	-2949
▁rights	-2950
▁taking	-2951
field	-2952
▁alleg	-2953
ulations	-2954
)(	-2955
▁String	-2956
=0	-2957
▁Dis	-2958
▁;	-2959
rror	-2960
▁young	-2961
▁index	-2962
more	-2963
▁diagn	-2964
document	-2965
▁original	-2966
rown	-2967
▁3,	-2968
ii	-2969
TR	-2970
▁compar	-2971
ills	-2972
▁extra	-2973
▁appear	-2974
astic	-2975
ging	-2976
rs	-2977
eks	-2978
Delta	-2979
▁Jan	-2980
▁dire	-2981
▁Europe	-2982
▁First	-2983
▁clinical	-2984
▁Ge	-2985
▁Fin	-2986
anks	-2987
▁Part	-2988
▁4*	-2989
ster	-2990
utions	-2991
ites	-2992
59	-2993
▁install	-2994
?"	-2995
▁Pr	-2996
uth	-2997
irl	-2998
▁products	-2999
▁select	-3000
ying	-3001
▁ess	-3002
▁functions	-3003
ferred	-3004
▁someone	-3005
pri	-3006
param	-3007
aled	-3008
unch	-3009
RNA	-3010
▁bad	-3011
▁array	-3012
▁conv	-3013
▁impact	-3014
ospital	-3015
▁temperature	-3016
▁probably	-3017
▁phase	-3018
EM	-3019
|\	-3020
px	-3021
▁dim	-3022
ributed	-3023
Tr	-3024
▁Just	-3025
▁Further	-3026
▁simply	-3027
▁City	-3028
▁front	-3029
▁sample	-3030
book	-3031
▁especially	-3032
56	-3033
▁district	-3034
sl	-3035
▁correl	-3036
▁His	-3037
▁sequence	-3038
▁μ	-3039
hem	-3040
elt	-3041
▁valid	-3042
down	-3043
define	-3044
▁!=	-3045
osition	-3046
▁depend	-3047
▁copy	-3048
▁exc	-3049
come	-3050
Set	-3051
▁Pe	-3052
▁context	-3053
▁live	-3054
clusion	-3055
▁properties	-3056
▁moment	-3057
▁OF	-3058
where	-3059
iqu	-3060
▁deriv	-3061
rame	-3062
istics	-3063
▁exact	-3064
▁Par	-3065
▁former	-3066
overed	-3067
▁determined	-3068
▁///	-3069
▁foot	-3070
AA	-3071
▁chem	-3072
trans	-3073
▁effort	-3074
xy	-3075
▁-4	-3076
▁personal	-3077
▁Although	-3078
79	-3079
▁consum	-3080
▁words	-3081
eration	-3082
▁According	-3083
▁dest	-3084
▁complete	-3085
▁medical	-3086
olic	-3087
▁?	-3088
▁presence	-3089
▁date	-3090
▁Gu	-3091
▁5.	-3092
▁CD	-3093
($	-3094
▁###	-3095
quad	-3096
▁cred	-3097
\\	-3098
▁events	-3099
eter	-3100
▁poly	-3101
▁mole	-3102
▁Dr	-3103
▁walk	-3104
actions	-3105
▁sil	-3106
▁pret	-3107
▁title	-3108
arily	-3109
Im	-3110
▁60	-3111
▁political	-3112
▁cal	-3113
amed	-3114
refore	-3115
▁Per	-3116
▁effective	-3117
54	-3118
▁pressure	-3119
▁judgment	-3120
▁types	-3121
31	-3122
Text	-3123
light	-3124
▁Calcul	-3125
▁satisf	-3126
point	-3127
▁quick	-3128
▁primary	-3129
▁strateg	-3130
ymb	-3131
));	-3132
▁genes	-3133
▁language	-3134
iddle	-3135
▁lack	-3136
oke	-3137
Object	-3138
ili	-3139
perty	-3140
error	-3141
▁outside	-3142
▁remain	-3143
Sh	-3144
{1}{	-3145
▁determine	-3146
▁constit	-3147
annel	-3148
▁features	-3149
inks	-3150
▁Comp	-3151
▁status	-3152
ronic	-3153
▁Therefore	-3154
▁presented	-3155
▁creat	-3156
rast	-3157
OP	-3158
ults	-3159
array	-3160
▁\<	-3161
▁physical	-3162
ards	-3163
dom	-3164
ocr	-3165
▁created	-3166
▁mi	-3167
▁sense	-3168
MS	-3169
▁Har	-3170
▁identified	-3171
▁increasing	-3172
icon	-3173
▁From	-3174
▁basis	-3175
^{-1	-3176
▁longer	-3177
su	-3178
▁weeks	-3179
▁random	-3180
▁parameters	-3181
▁Reg	-3182
▁acid	-3183
▁samples	-3184
▁controll	-3185
▁statement	-3186
/>	-3187
▁default	-3188
ags	-3189
na	-3190
▁pain	-3191
)}	-3192
▁evalu	-3193
File	-3194
▁Ed	-3195
path	-3196
▁approxim	-3197
▁License	-3198
▁follows	-3199
▁System	-3200
▁und	-3201
▁running	-3202
Un	-3203
▁frame	-3204
▁easy	-3205
Get	-3206
▁member	-3207
▁inside	-3208
item	-3209
▁tiss	-3210
▁pack	-3211
ises	-3212
uous	-3213
▁0.00	-3214
▁hyp	-3215
ese	-3216
../../	-3217
▁surv	-3218
augh	-3219
▁areas	-3220
▁quite	-3221
▁elements	-3222
▁ST	-3223
sych	-3224
▁white	-3225
42	-3226
▁continue	-3227
Mod	-3228
ancial	-3229
ana	-3230
▁sem	-3231
▁constant	-3232
▁stra	-3233
-8	-3234
▁news	-3235
ogle	-3236
▁Calculate	-3237
▁recomm	-3238
▁directly	-3239
olds	-3240
▁oil	-3241
ervice	-3242
rack	-3243
PS	-3244
▁President	-3245
▁pair	-3246
En	-3247
comp	-3248
sim	-3249
▁secur	-3250
▁fire	-3251
itude	-3252
rite	-3253
bt	-3254
▁hope	-3255
ien	-3256
bor	-3257
96	-3258
▁Will	-3259
76	-3260
▁everything	-3261
▁wrong	-3262
ega	-3263
lay	-3264
]{},	-3265
hood	-3266
ellant	-3267
lation	-3268
▁memory	-3269
▁Go	-3270
urch	-3271
▁Intern	-3272
1/	-3273
lier	-3274
▁AP	-3275
asons	-3276
▁games	-3277
▁questions	-3278
▁force	-3279
▁stop	-3280
rangle	-3281
▁DNA	-3282
itary	-3283
▁sett	-3284
▁share	-3285
ottom	-3286
▁Dem	-3287
aving	-3288
▁23	-3289
lig	-3290
ecause	-3291
earch	-3292
▁Ne	-3293
▁princ	-3294
https	-3295
▁training	-3296
▁Dist	-3297
ocol	-3298
tilde	-3299
94	-3300
isions	-3301
▁5*	-3302
86	-3303
▁natural	-3304
▁opportun	-3305
sk	-3306
▁contain	-3307
fection	-3308
▁cry	-3309
▁avoid	-3310
▁Pa	-3311
)$.	-3312
▁stri	-3313
▁map	-3314
\*	-3315
plate	-3316
▁gas	-3317
top	-3318
itation	-3319
\])	-3320
▁replace	-3321
▁Val	-3322
OD	-3323
▁stay	-3324
▁ple	-3325
▁knowledge	-3326
lementary	-3327
▁applied	-3328
vere	-3329
▁greater	-3330
________	-3331
CD	-3332
▁mis	-3333
▁wanted	-3334
▁video	-3335
▁building	-3336
▁option	-3337
▁limited	-3338
▁focus	-3339
▁ago	-3340
▁previously	-3341
cdot	-3342
▁pie	-3343
▁theory	-3344
▁release	-3345
▁includes	-3346
}(\	-3347
▁22	-3348
era	-3349
▁isn	-3350
▁message	-3351
clus	-3352
▁layer	-3353
▁fem	-3354
▁Sm	-3355
rote	-3356
rows	-3357
ded	-3358
▁Id	-3359
ha	-3360
▁behavior	-3361
Item	-3362
ferences	-3363
▁Af	-3364
rial	-3365
char	-3366
▁double	-3367
▁veh	-3368
▁reduced	-3369
oma	-3370
-10	-3371
▁ful	-3372
▁Us	-3373
het	-3374
▁Bar	-3375
mpt	-3376
ially	-3377
user	-3378
▁claims	-3379
▁South	-3380
▁behind	-3381
pite	-3382
▁ability	-3383
erson	-3384
▁impl	-3385
▁OR	-3386
".	-3387
▁national	-3388
▁jo	-3389
▁vac	-3390
▁vict	-3391
▁mice	-3392
lege	-3393
▁[*	-3394
▁article	-3395
▁bur	-3396
▁-5	-3397
ditional	-3398
▁opin	-3399
ague	-3400
ML	-3401
▁−	-3402
osure	-3403
oles	-3404
gra	-3405
script	-3406
map	-3407
▁rev	-3408
▁express	-3409
▁developed	-3410
term	-3411
:**	-3412
-5	-3413
aves	-3414
▁invention	-3415
reet	-3416
().	-3417
roph	-3418
▁har	-3419
▁mach	-3420
oat	-3421
2){	-3422
▁immedi	-3423
▁accom	-3424
isms	-3425
psilon	-3426
▁software	-3427
▁compan	-3428
och	-3429
but	-3430
rant	-3431
dev	-3432
LO	-3433
bb	-3434
apter	-3435
arning	-3436
rief	-3437
Key	-3438
osph	-3439
▁write	-3440
▁II	-3441
▁Russ	-3442
function	-3443
▁County	-3444
▁North	-3445
fered	-3446
▁favor	-3447
▁);	-3448
length	-3449
▁Dav	-3450
ula	-3451
imate	-3452
▁independent	-3453
43	-3454
Par	-3455
fs	-3456
iet	-3457
▁autom	-3458
▁appropri	-3459
▁players	-3460
▁written	-3461
icles	-3462
met	-3463
js	-3464
elling	-3465
▁Gl	-3466
▁reference	-3467
▁president	-3468
▁msg	-3469
▁particularly	-3470
▁match	-3471
[0	-3472
BC	-3473
▁prec	-3474
5%	-3475
ners	-3476
▁followed	-3477
aches	-3478
max	-3479
cm	-3480
▁numbers	-3481
otic	-3482
▁4,	-3483
▁antib	-3484
orks	-3485
umb	-3486
▁obtain	-3487
iber	-3488
MA	-3489
▁ir	-3490
ada	-3491
▁active	-3492
uary	-3493
▁27	-3494
▁unit	-3495
▁Phys	-3496
▁26	-3497
do	-3498
▁background	-3499
Ps	-3500
aign	-3501
▁IS	-3502
▁names	-3503
▁window	-3504
▁construct	-3505
▁saw	-3506
▁cand	-3507
~2	-3508
▁prep	-3509
85	-3510
89	-3511
▁Oct	-3512
gor	-3513
▁hot	-3514
ament	-3515
.'	-3516
EL	-3517
apan	-3518
▁repe	-3519
▁negative	-3520
▁security	-3521
▁forward	-3522
87	-3523
▁corresponding	-3524
atives	-3525
00,	-3526
▁slow	-3527
▁__	-3528
range	-3529
▁March	-3530
▁};	-3531
▁org	-3532
pen	-3533
▁clean	-3534
Se	-3535
▁21	-3536
rupt	-3537
abase	-3538
ocation	-3539
sm	-3540
ethyl	-3541
mega	-3542
▁global	-3543
▁mention	-3544
▁Cons	-3545
urb	-3546
▁friend	-3547
▁rule	-3548
non	-3549
▁World	-3550
▁rates	-3551
▁vot	-3552
▁grant	-3553
▁purch	-3554
▁species	-3555
kn	-3556
▁bir	-3557
▁although	-3558
▁usually	-3559
)/	-3560
SD	-3561
▁note	-3562
▁style	-3563
vention	-3564
ishing	-3565
▁instance	-3566
▁Sch	-3567
fo	-3568
▁differences	-3569
▁etc	-3570
▁dynam	-3571
hest	-3572
▁altern	-3573
▁(1	-3574
▁Ser	-3575
▁Apr	-3576
▁word	-3577
▁anim	-3578
inated	-3579
▁regular	-3580
▁nature	-3581
▁whose	-3582
▁generally	-3583
psi	-3584
▁practice	-3585
atform	-3586
cast	-3587
▁compet	-3588
▁online	-3589
}}$	-3590
▁box	-3591
ashing	-3592
▁(200	-3593
▁argument	-3594
▁agreement	-3595
▁prot	-3596
▁Su	-3597
Int	-3598
As	-3599
▁webs	-3600
▁offer	-3601
▁China	-3602
}^	-3603
iven	-3604
eline	-3605
reng	-3606
▁accur	-3607
53	-3608
▁broad	-3609
▁recently	-3610
.\	-3611
Test	-3612
▁except	-3613
▁office	-3614
Ed	-3615
ils	-3616
▁proposed	-3617
▁living	-3618
▁ge	-3619
encies	-3620
inate	-3621
▁wall	-3622
▁House	-3623
aries	-3624
▁mother	-3625
▁late	-3626
Ind	-3627
▁answer	-3628
▁countries	-3629
▁themselves	-3630
▁tried	-3631
with	-3632
▁/>	-3633
▁brain	-3634
▁po	-3635
OL	-3636
▁Aust	-3637
~2~	-3638
▁((	-3639
▁density	-3640
▁resid	-3641
itness	-3642
▁Tra	-3643
▁Aug	-3644
vare	-3645
▁Ap	-3646
▁coming	-3647
vey	-3648
▁Sub	-3649
ees	-3650
▁General	-3651
▁stress	-3652
gorith	-3653
wide	-3654
4-	-3655
urance	-3656
▁essential	-3657
▁driv	-3658
IF	-3659
orph	-3660
group	-3661
▁takes	-3662
.01	-3663
▁federal	-3664
oon	-3665
▁analyz	-3666
▁node	-3667
▁treated	-3668
▁Department	-3669
▁sort	-3670
▁Trans	-3671
▁legal	-3672
rightarrow	-3673
▁synt	-3674
CA	-3675
▁America	-3676
epsilon	-3677
▁rot	-3678
▁leave	-3679
ufact	-3680
change	-3681
▁enh	-3682
▁purpose	-3683
ivil	-3684
ste	-3685
joy	-3686
EX	-3687
▁published	-3688
ze	-3689
▁label	-3690
SP	-3691
▁financial	-3692
▁failed	-3693
▁lost	-3694
▁ball	-3695
He	-3696
▁anyone	-3697
▁sle	-3698
▁Get	-3699
illing	-3700
▁direction	-3701
▁June	-3702
▁speed	-3703
▁relative	-3704
CE	-3705
^[@	-3706
supp	-3707
ULL	-3708
▁hydro	-3709
▁became	-3710
▁5,	-3711
▁himself	-3712
▁feed	-3713
igen	-3714
print	-3715
▁situation	-3716
varepsilon	-3717
▁Fran	-3718
▁center	-3719
▁intern	-3720
Exception	-3721
00000000	-3722
▁watch	-3723
py	-3724
Omega	-3725
▁6.	-3726
▁Germ	-3727
▁×	-3728
aily	-3729
▁heav	-3730
▁derivative	-3731
▁cover	-3732
cho	-3733
▁Japan	-3734
rew	-3735
bon	-3736
▁Also	-3737
▁sufficient	-3738
▁========	-3739
▁findings	-3740
▁Stud	-3741
Gamma	-3742
▁Because	-3743
link	-3744
▁Sen	-3745
▁deep	-3746
▁component	-3747
▁comment	-3748
['	-3749
▁Rec	-3750
▁selected	-3751
▁ways	-3752
▁jury	-3753
mar	-3754
argin	-3755
uel	-3756
▁vers	-3757
▁command	-3758
▁isol	-3759
ports	-3760
▁price	-3761
▁Jud	-3762
)$,	-3763
acity	-3764
▁highly	-3765
pret	-3766
0.00	-3767
lin	-3768
▁saying	-3769
▁allowed	-3770
ulate	-3771
▁degree	-3772
▁fast	-3773
▁operation	-3774
▁Health	-3775
▁star	-3776
index	-3777
bran	-3778
////////	-3779
⁄4	-3780
reme	-3781
▁substant	-3782
▁charge	-3783
▁Mod	-3784
pace	-3785
▁Republic	-3786
pat	-3787
▁commit	-3788
▁designed	-3789
▁larger	-3790
▁graph	-3791
▁measured	-3792
▁Sept	-3793
▁La	-3794
▁serious	-3795
▁7.	-3796
pan	-3797
▁perfect	-3798
Error	-3799
anger	-3800
ae	-3801
▁29	-3802
▁auth	-3803
\].	-3804
izes	-3805
*~	-3806
EG	-3807
▁phen	-3808
▁details	-3809
▁currently	-3810
▁stage	-3811
oding	-3812
ibrary	-3813
]^	-3814
ener	-3815
▁files	-3816
aching	-3817
▁saf	-3818
orem	-3819
▁images	-3820
dim	-3821
▁location	-3822
▁197	-3823
Is	-3824
▁identify	-3825
▁pretty	-3826
▁individuals	-3827
▁draw	-3828
▁appeal	-3829
▁[**	-3830
▁campaign	-3831
▁girl	-3832
▁caused	-3833
7)	-3834
▁Of	-3835
▁hor	-3836
uge	-3837
rael	-3838
ociety	-3839
▁components	-3840
▁:=	-3841
den	-3842
▁proceed	-3843
▁squ	-3844
base	-3845
▁matrix	-3846
▁El	-3847
▁restr	-3848
▁April	-3849
▁aud	-3850
▁Other	-3851
itter	-3852
UL	-3853
▁List	-3854
ME	-3855
ournal	-3856
▁War	-3857
▁January	-3858
bi	-3859
"><	-3860
▁proteins	-3861
lor	-3862
orage	-3863
▁Mich	-3864
▁requires	-3865
ny	-3866
▁streng	-3867
ming	-3868
:0	-3869
▁scale	-3870
▁psych	-3871
▁gives	-3872
▁options	-3873
▁profess	-3874
▁companies	-3875
▁bank	-3876
ersion	-3877
▁visit	-3878
▁clust	-3879
rought	-3880
▁Red	-3881
omy	-3882
ffer	-3883
▁->	-3884
▁July	-3885
operator	-3886
▁pict	-3887
▁fixed	-3888
BS	-3889
▁integr	-3890
▁Data	-3891
▁useful	-3892
oud	-3893
▁round	-3894
▁stim	-3895
ken	-3896
▁gave	-3897
▁began	-3898
▁hyper	-3899
▁failure	-3900
hesis	-3901
(),	-3902
---|	-3903
iated	-3904
▁woman	-3905
count	-3906
▁users	-3907
oe	-3908
lib	-3909
▁leading	-3910
lock	-3911
▁Gre	-3912
hern	-3913
haps	-3914
▁bal	-3915
▁management	-3916
▁promot	-3917
▁notice	-3918
▁everyone	-3919
oring	-3920
ride	-3921
ocks	-3922
▁server	-3923
▁led	-3924
iency	-3925
▁TH	-3926
estern	-3927
▁choice	-3928
semb	-3929
▁1/	-3930
▁suit	-3931
ridge	-3932
▁circum	-3933
▁frequency	-3934
**(	-3935
▁attention	-3936
▁road	-3937
▁West	-3938
erve	-3939
▁soon	-3940
▁contains	-3941
cil	-3942
TH	-3943
init	-3944
▁unique	-3945
▁education	-3946
istry	-3947
obile	-3948
▁Feb	-3949
▁sche	-3950
.00	-3951
▁technology	-3952
ously	-3953
▁connection	-3954
ifically	-3955
*.	-3956
hold	-3957
fn	-3958
ius	-3959
▁AD	-3960
Time	-3961
84	-3962
ography	-3963
▁ratio	-3964
▁divided	-3965
▁cook	-3966
▁poor	-3967
▁Sw	-3968
ned	-3969
king	-3970
▁candid	-3971
▁parties	-3972
▁recept	-3973
▁});	-3974
▁apply	-3975
▁prime	-3976
▁costs	-3977
orney	-3978
▁width	-3979
}_{\	-3980
▁sn	-3981
irmed	-3982
!!	-3983
▁Cir	-3984
▁80	-3985
rate	-3986
▁threat	-3987
ouch	-3988
▁Che	-3989
ham	-3990
▁exerc	-3991
▁eyes	-3992
▁alone	-3993
▁acqu	-3994
ights	-3995
▁ord	-3996
Class	-3997
iring	-3998
aker	-3999
▁Char	-4000
▁friends	-4001
section	-4002
▁pull	-4003
active	-4004
');	-4005
52	-4006
nes	-4007
▁Inst	-4008
osing	-4009
▁----	-4010
TT	-4011
zz	-4012
▁goal	-4013
▁lat	-4014
▁industry	-4015
▁web	-4016
using	-4017
());	-4018
-6	-4019
▁appropriate	-4020
▁<<	-4021
▁manufact	-4022
▁tim	-4023
▁multi	-4024
Path	-4025
▁emerg	-4026
iam	-4027
coming	-4028
tee	-4029
▁Even	-4030
▁completely	-4031
▁($	-4032
style	-4033
▁parts	-4034
▁ten	-4035
▁central	-4036
▁Brit	-4037
▁stated	-4038
cin	-4039
varphi	-4040
PA	-4041
▁wasn	-4042
▁supported	-4043
▁bed	-4044
▁established	-4045
exp	-4046
ube	-4047
2\	-4048
cap	-4049
fil	-4050
▁Br	-4051
▁equal	-4052
ellow	-4053
▁heat	-4054
_3	-4055
▁que	-4056
8)	-4057
▁overall	-4058
▁definition	-4059
▁Det	-4060
▁neigh	-4061
▁generated	-4062
State	-4063
▁Pre	-4064
▁distance	-4065
▁cyt	-4066
anc	-4067
▁earlier	-4068
▁devices	-4069
▁inform	-4070
▁expressed	-4071
▁enjoy	-4072
▁pen	-4073
vis	-4074
uted	-4075
"/>	-4076
▁allows	-4077
74	-4078
▁Israel	-4079
▁mg	-4080
▁knew	-4081
5-	-4082
CS	-4083
▁parameter	-4084
ait	-4085
▁AND	-4086
▁fair	-4087
^+	-4088
▁Public	-4089
▁containing	-4090
▁engine	-4091
▁aim	-4092
▁Note	-4093
▁buy	-4094
▁easily	-4095
▁track	-4096
▁filed	-4097
▁finding	-4098
abled	-4099
▁Art	-4100
▁discl	-4101
+1	-4102
▁board	-4103
NS	-4104
_1,	-4105
▁tele	-4106
▁located	-4107
='	-4108
▁1)	-4109
▁ax	-4110
▁sites	-4111
▁Cong	-4112
▁imm	-4113
chi	-4114
But	-4115
Al	-4116
cember	-4117
Sec	-4118
enses	-4119
bra	-4120
known	-4121
▁highest	-4122
▁produced	-4123
omen	-4124
ancy	-4125
▁critical	-4126
▁reasons	-4127
PR	-4128
▁activities	-4129
▁hospital	-4130
overy	-4131
▁leaders	-4132
▁reduce	-4133
▁economic	-4134
▁Ant	-4135
▁mode	-4136
force	-4137
3){	-4138
▁variable	-4139
▁challeng	-4140
▁staff	-4141
▁authors	-4142
▁tumor	-4143
call	-4144
▁opinion	-4145
▁relevant	-4146
▁store	-4147
▁sympt	-4148
▁actual	-4149
ifier	-4150
lick	-4151
63	-4152
▁email	-4153
▁capt	-4154
▁dog	-4155
▁clearly	-4156
▁adjust	-4157
▁counsel	-4158
▁Which	-4159
vec	-4160
▁Sy	-4161
ades	-4162
▁(0.	-4163
oura	-4164
▁website	-4165
▁virt	-4166
▁Ð	-4167
band	-4168
▁package	-4169
▁injury	-4170
▁root	-4171
▁town	-4172
overline	-4173
';	-4174
yond	-4175
^{(	-4176
▁std	-4177
▁writing	-4178
bin	-4179
▁qual	-4180
▁vector	-4181
ymbol	-4182
▁District	-4183
92	-4184
▁#####	-4185
spec	-4186
Add	-4187
▁meaning	-4188
▁00	-4189
▁Moreover	-4190
pid	-4191
Def	-4192
▁proof	-4193
plit	-4194
▁plant	-4195
▁receive	-4196
▁October	-4197
urity	-4198
▁travel	-4199
ytes	-4200
▁smaller	-4201
You	-4202
▁August	-4203
▁vs	-4204
operatorname	-4205
▁liter	-4206
langle	-4207
▁ones	-4208
ios	-4209
▁worth	-4210
▁uses	-4211
▁items	-4212
▁transfer	-4213
▁transition	-4214
iate	-4215
93	-4216
▁son	-4217
▁Solve	-4218
▁90	-4219
gram	-4220
▁felt	-4221
62	-4222
▁showing	-4223
▁du	-4224
Qu	-4225
▁les	-4226
▁vo	-4227
▁util	-4228
▁mer	-4229
▁learning	-4230
HO	-4231
Man	-4232
ovember	-4233
▁hearing	-4234
*]{}	-4235
gn	-4236
▁electro	-4237
▁trust	-4238
▁android	-4239
▁mid	-4240
)=	-4241
▁fight	-4242
Context	-4243
▁changed	-4244
aur	-4245
▁September	-4246
:00	-4247
▁sound	-4248
▁height	-4249
cks	-4250
▁December	-4251
▁fine	-4252
struct	-4253
▁experiments	-4254
._	-4255
cale	-4256
▁appears	-4257
▁culture	-4258
Cs	-4259
ibly	-4260
▁Any	-4261
▁computer	-4262
▁concept	-4263
':	-4264
▁numer	-4265
▁internal	-4266
▁effic	-4267
▁High	-4268
▁beyond	-4269
▁remains	-4270
▁contrast	-4271
▁dro	-4272
▁Section	-4273
72	-4274
▁School	-4275
lish	-4276
odies	-4277
▁Set	-4278
.[	-4279
}=	-4280
▁algorith	-4281
▁define	-4282
cluded	-4283
▁built	-4284
▁aw	-4285
PL	-4286
related	-4287
▁rules	-4288
▁advant	-4289
▁regarding	-4290
▁10.	-4291
FL	-4292
▁fa	-4293
▁dark	-4294
By	-4295
▁mys	-4296
**4	-4297
▁brought	-4298
overn	-4299
ressive	-4300
▁dead	-4301
▁majority	-4302
For	-4303
▁relig	-4304
fort	-4305
▁understanding	-4306
▁transport	-4307
▁extract	-4308
aling	-4309
▁Post	-4310
▁variables	-4311
ica	-4312
▁fat	-4313
▁Most	-4314
ashington	-4315
▁hit	-4316
▁benefits	-4317
Size	-4318
ira	-4319
Info	-4320
41	-4321
▁exists	-4322
(1	-4323
▁produce	-4324
\'	-4325
efore	-4326
rier	-4327
alt	-4328
PD	-4329
▁subsequ	-4330
▁Two	-4331
▁]	-4332
df	-4333
▁binding	-4334
▁towards	-4335
▁True	-4336
▁Mark	-4337
eed	-4338
▁inn	-4339
▁contribut	-4340
▁70	-4341
▁Aut	-4342
rum	-4343
▁repl	-4344
▁Your	-4345
▁carry	-4346
rence	-4347
▁turned	-4348
▁counter	-4349
▁Figure	-4350
▁looked	-4351
▁worked	-4352
▁task	-4353
osite	-4354
cos	-4355
▁fully	-4356
▁therapy	-4357
▁resulting	-4358
▁goes	-4359
▁Table	-4360
▁concentration	-4361
hand	-4362
▁origin	-4363
▁Democr	-4364
▁skin	-4365
▁interpret	-4366
▁CON	-4367
▁yield	-4368
▁decided	-4369
opl	-4370
▁hands	-4371
▁Her	-4372
}}(	-4373
gu	-4374
▁reports	-4375
======	-4376
▁Exp	-4377
▁^	-4378
▁tissue	-4379
▁hon	-4380
utive	-4381
▁November	-4382
▁reasonable	-4383
▁secret	-4384
▁prop	-4385
works	-4386
▁medium	-4387
▁looks	-4388
▁Tw	-4389
attle	-4390
cules	-4391
▁military	-4392
▁materials	-4393
▁door	-4394
▁linear	-4395
▁setting	-4396
geq	-4397
▁surpr	-4398
▁somet	-4399
▁eight	-4400
▁column	-4401
mark	-4402
▁father	-4403
▁indicated	-4404
▁feature	-4405
▁vehicle	-4406
ille	-4407
▁infection	-4408
ATE	-4409
▁Calif	-4410
1*	-4411
▁drive	-4412
▁ox	-4413
unk	-4414
inct	-4415
▁wrote	-4416
acher	-4417
SA	-4418
room	-4419
▁mount	-4420
▁switch	-4421
config	-4422
▁Afric	-4423
oken	-4424
▁https	-4425
▁sold	-4426
▁San	-4427
De	-4428
▁Em	-4429
▁interesting	-4430
pective	-4431
▁ID	-4432
▁birth	-4433
▁parents	-4434
oses	-4435
▁Rev	-4436
83	-4437
▁separate	-4438
▁score	-4439
Le	-4440
▁wonder	-4441
73	-4442
▁reading	-4443
▁fields	-4444
▁cool	-4445
▁vit	-4446
▁solid	-4447
▁construction	-4448
▁played	-4449
▁applications	-4450
Form	-4451
▁beaut	-4452
▁consequ	-4453
▁heard	-4454
enge	-4455
gs	-4456
▁zero	-4457
stream	-4458
``	-4459
Config	-4460
color	-4461
frak	-4462
▁sec	-4463
▁interview	-4464
▁maximum	-4465
▁arch	-4466
▁player	-4467
▁reaction	-4468
▁(2)	-4469
▁Washington	-4470
▁cam	-4471
asis	-4472
RA	-4473
icit	-4474
\,	-4475
▁liqu	-4476
▁noted	-4477
▁volume	-4478
▁couple	-4479
ares	-4480
arest	-4481
▁obvious	-4482
▁pul	-4483
▁Over	-4484
82	-4485
▁Coun	-4486
ql	-4487
▁throughout	-4488
▁35	-4489
▁connected	-4490
▁Net	-4491
▁SE	-4492
▁exactly	-4493
input	-4494
▁regions	-4495
▁starting	-4496
Ct	-4497
▁formed	-4498
undred	-4499
▁sources	-4500
java	-4501
CK	-4502
▁domain	-4503
erate	-4504
No	-4505
▁32	-4506
athe	-4507
▁collect	-4508
asm	-4509
▁damage	-4510
▁participants	-4511
▁formation	-4512
▁Commission	-4513
▁closed	-4514
▁instit	-4515
▁arrest	-4516
▁processes	-4517
▁8.	-4518
▁gun	-4519
▁administration	-4520
▁Defend	-4521
nb	-4522
▁coord	-4523
▁safety	-4524
▁Rel	-4525
men	-4526
▁becomes	-4527
▁lov	-4528
▁meeting	-4529
▁transform	-4530
font	-4531
tered	-4532
▁USA	-4533
unc	-4534
▁international	-4535
▁tests	-4536
arter	-4537
▁nor	-4538
▁Ac	-4539
▁rob	-4540
Ad	-4541
▁slight	-4542
erved	-4543
▁fix	-4544
free	-4545
']	-4546
ruary	-4547
▁collection	-4548
▁otherwise	-4549
▁mm	-4550
ESS	-4551
▁Sat	-4552
This	-4553
omic	-4554
icip	-4555
▁er	-4556
▁IL	-4557
anged	-4558
raz	-4559
iance	-4560
▁revealed	-4561
▁spin	-4562
▁reflect	-4563
▁interaction	-4564
▁fit	-4565
▁""	-4566
▁aspect	-4567
▁equation	-4568
▁absol	-4569
▁Gr	-4570
▁stru	-4571
iences	-4572
ford	-4573
▁cit	-4574
▁Center	-4575
rag	-4576
gery	-4577
▁gets	-4578
▁Park	-4579
And	-4580
CP	-4581
▁basic	-4582
▁Obama	-4583
▁~	-4584
▁------------	-4585
▁client	-4586
▁popular	-4587
▁immediately	-4588
ornia	-4589
6-	-4590
▁demand	-4591
material	-4592
▁reduction	-4593
▁ign	-4594
▁released	-4595
▁laws	-4596
▁hous	-4597
pling	-4598
04	-4599
}^{\	-4600
▁actions	-4601
ls	-4602
olar	-4603
▁opportunity	-4604
9)	-4605
wid	-4606
ico	-4607
db	-4608
▁victim	-4609
▁Furthermore	-4610
▁mechanism	-4611
▁ult	-4612
▁lives	-4613
▁morning	-4614
▁defense	-4615
▁mort	-4616
▁toward	-4617
▁Austral	-4618
▁eth	-4619
irit	-4620
ameter	-4621
▁safe	-4622
DA	-4623
}.	-4624
▁testing	-4625
Event	-4626
▁wide	-4627
▁influence	-4628
0,000	-4629
▁consistent	-4630
▁Sec	-4631
▁scient	-4632
▁uns	-4633
▁combination	-4634
▁procedure	-4635
▁thous	-4636
▁Don	-4637
▁alleged	-4638
Requ	-4639
▁ensure	-4640
▁relatively	-4641
mathfrak	-4642
▁Inter	-4643
▁metab	-4644
▁mess	-4645
ounced	-4646
adem	-4647
▁PM	-4648
▁please	-4649
▁paid	-4650
cles	-4651
▁resources	-4652
sembly	-4653
▁Why	-4654
▁Hol	-4655
imony	-4656
▁capital	-4657
raint	-4658
▁remove	-4659
▁roll	-4660
alle	-4661
▁resistance	-4662
icted	-4663
▁ter	-4664
Or	-4665
▁phosph	-4666
GF	-4667
▁giving	-4668
▁February	-4669
info	-4670
▁Law	-4671
amin	-4672
▁forms	-4673
▁NULL	-4674
EST	-4675
▁circumst	-4676
▁portion	-4677
IB	-4678
board	-4679
▁wild	-4680
▁functional	-4681
zym	-4682
▁database	-4683
true	-4684
With	-4685
▁Tex	-4686
Pl	-4687
▁providing	-4688
.19	-4689
vision	-4690
▁figure	-4691
▁California	-4692
▁ampl	-4693
▁sometimes	-4694
▁legis	-4695
▁quickly	-4696
▁Att	-4697
▁enter	-4698
▁core	-4699
▁swe	-4700
▁blog	-4701
ANT	-4702
On	-4703
^3	-4704
ctors	-4705
▁establish	-4706
ech	-4707
▁conducted	-4708
▁channel	-4709
▁petition	-4710
▁existing	-4711
otal	-4712
▁strength	-4713
ranch	-4714
▁neut	-4715
bur	-4716
▁aware	-4717
php	-4718
▁lib	-4719
▁green	-4720
▁movement	-4721
▁AT	-4722
▁nearly	-4723
▁Finally	-4724
02	-4725
▁bottom	-4726
▁syn	-4727
▁circuit	-4728
aste	-4729
▁equival	-4730
▁detected	-4731
())	-4732
start	-4733
▁jur	-4734
▁membran	-4735
▁37	-4736
▁brief	-4737
▁mal	-4738
node	-4739
▁commer	-4740
▁Add	-4741
▁calculated	-4742
stitute	-4743
▁achieve	-4744
▁incor	-4745
▁choose	-4746
▁middle	-4747
▁NOT	-4748
ida	-4749
▁facts	-4750
[]	-4751
▁Paul	-4752
▁During	-4753
ront	-4754
▁0)	-4755
▁respond	-4756
▁moved	-4757
Node	-4758
▁daily	-4759
ooth	-4760
▁steps	-4761
▁doc	-4762
▁objects	-4763
▁AM	-4764
ilies	-4765
core	-4766
\],	-4767
▁complic	-4768
▁nearest	-4769
iform	-4770
▁lif	-4771
▁comments	-4772
enty	-4773
ael	-4774
ensions	-4775
▁concentr	-4776
poses	-4777
▁Je	-4778
irt	-4779
▁(**	-4780
▁David	-4781
VER	-4782
iques	-4783
▁analys	-4784
▁reach	-4785
eria	-4786
uffer	-4787
▁station	-4788
▁demonstrated	-4789
▁indicate	-4790
*-	-4791
▁moving	-4792
▁hundred	-4793
▁Ang	-4794
▁mur	-4795
▁King	-4796
▁animals	-4797
▁Bro	-4798
▁units	-4799
▁Associ	-4800
la	-4801
jection	-4802
▁-2*	-4803
omin	-4804
▁exhib	-4805
▁speak	-4806
▁wave	-4807
▁\,	-4808
space	-4809
▁Test	-4810
iable	-4811
▁sleep	-4812
urt	-4813
05	-4814
ky	-4815
▁upper	-4816
▁White	-4817
▁DE	-4818
ponent	-4819
encing	-4820
▁playing	-4821
Index	-4822
▁finally	-4823
inst	-4824
▁bool	-4825
▁crim	-4826
▁regul	-4827
▁distributed	-4828
▁border	-4829
▁removed	-4830
▁False	-4831
▁Plaintiff	-4832
Big	-4833
OM	-4834
▁placed	-4835
▁prove	-4836
▁######	-4837
▁statist	-4838
▁operator	-4839
---|---|	-4840
pir	-4841
▁capacity	-4842
▁trade	-4843
▁cert	-4844
▁Found	-4845
long	-4846
▁il	-4847
▁processing	-4848
▁Pal	-4849
▁carried	-4850
All	-4851
▁Each	-4852
itors	-4853
thon	-4854
rome	-4855
▁Research	-4856
▁phone	-4857
▁(3	-4858
ocket	-4859
▁band	-4860
▁shape	-4861
▁witness	-4862
▁integ	-4863
▁bacter	-4864
▁--------	-4865
Field	-4866
▁variety	-4867
▁hear	-4868
flow	-4869
▁chance	-4870
Map	-4871
image	-4872
cons	-4873
DS	-4874
▁row	-4875
▁screen	-4876
pc	-4877
indows	-4878
▁happen	-4879
HT	-4880
▁benefit	-4881
/3	-4882
*)	-4883
▁update	-4884
oz	-4885
▁sets	-4886
▁•	-4887
▁thinking	-4888
▁pow	-4889
▁Under	-4890
▁(201	-4891
=1	-4892
▁European	-4893
▁platform	-4894
▁RE	-4895
▁NS	-4896
▁yes	-4897
▁India	-4898
▁remember	-4899
otype	-4900
uced	-4901
^{2	-4902
▁selection	-4903
▁music	-4904
lication	-4905
▁send	-4906
ett	-4907
▁extrem	-4908
_{0	-4909
ails	-4910
atin	-4911
▁2012	-4912
soft	-4913
▁seven	-4914
▁civil	-4915
▁recommend	-4916
iers	-4917
urrent	-4918
object	-4919
md	-4920
▁programs	-4921
umin	-4922
iful	-4923
▁weak	-4924
▁##	-4925
▁labor	-4926
rees	-4927
▁suggested	-4928
▁Govern	-4929
igation	-4930
▁blue	-4931
[\	-4932
▁peak	-4933
51	-4934
▁module	-4935
level	-4936
▁Board	-4937
airs	-4938
8-	-4939
▁myself	-4940
▁Many	-4941
▁Off	-4942
▁Another	-4943
parent	-4944
▁fear	-4945
ipe	-4946
▁magnetic	-4947
▁machine	-4948
▁apparent	-4949
▁workers	-4950
▁Mor	-4951
▁comparison	-4952
▁onto	-4953
rab	-4954
FA	-4955
▁prem	-4956
▁testimony	-4957
ship	-4958
MM	-4959
]\],	-4960
▁Mus	-4961
▁conflic	-4962
from	-4963
▁increases	-4964
▁approximately	-4965
▁36	-4966
acing	-4967
coh	-4968
▁corpor	-4969
▁race	-4970
▁replacement	-4971
apping	-4972
▁named	-4973
▁upd	-4974
▁exposure	-4975
▁nation	-4976
CI	-4977
FT	-4978
▁2016	-4979
▁Yes	-4980
▁Well	-4981
81	-4982
▁0.01	-4983
▁susp	-4984
atically	-4985
icity	-4986
ithub	-4987
▁ready	-4988
dered	-4989
elle	-4990
91	-4991
▁letters	-4992
omb	-4993
▁healthy	-4994
▁Rem	-4995
▁bill	-4996
▁discussed	-4997
Of	-4998
othe	-4999
9-	-5000
olved	-5001
▁measures	-5002
▁income	-5003
▁mag	-5004
iment	-5005
▁Sup	-5006
▁Ill	-5007
return	-5008
▁sen	-5009
}}}	-5010
uty	-5011
########	-5012
Supp	-5013
▁RNA	-5014
▁Using	-5015
ui	-5016
▁manner	-5017
ensional	-5018
▁throw	-5019
stitution	-5020
▁characteristics	-5021
▁passed	-5022
▁UK	-5023
lo	-5024
▁places	-5025
orb	-5026
check	-5027
▁judge	-5028
dot	-5029
▁symptoms	-5030
▁Ham	-5031
▁English	-5032
((	-5033
▁responsible	-5034
▁continuous	-5035
▁visual	-5036
INT	-5037
reek	-5038
▁continued	-5039
aught	-5040
▁wid	-5041
▁picked	-5042
Equ	-5043
▁insert	-5044
▁letter	-5045
▁unc	-5046
car	-5047
Array	-5048
▁norm	-5049
rie	-5050
▁adopt	-5051
▁International	-5052
▁structures	-5053
▁imag	-5054
▁fib	-5055
▁interface	-5056
ifying	-5057
▁description	-5058
▁2013	-5059
pected	-5060
▁emot	-5061
vest	-5062
▁(1)	-5063
RI	-5064
▁fresh	-5065
▁diss	-5066
▁stuff	-5067
▁filter	-5068
▁bul	-5069
"},	-5070
omas	-5071
▁save	-5072
berg	-5073
▁TO	-5074
▁panel	-5075
▁insurance	-5076
▁returned	-5077
An	-5078
▁script	-5079
▁nut	-5080
roller	-5081
▁unf	-5082
▁intra	-5083
▁drugs	-5084
roy	-5085
▁modern	-5086
▁award	-5087
▁Every	-5088
▁2014	-5089
reate	-5090
▁edge	-5091
itis	-5092
▁beginning	-5093
▁severe	-5094
Att	-5095
bm	-5096
▁activation	-5097
ruit	-5098
num	-5099
block	-5100
▁billion	-5101
▁detection	-5102
▁stock	-5103
▁Congress	-5104
ano	-5105
▁adapt	-5106
uing	-5107
▁happened	-5108
▁ut	-5109
▁yourself	-5110
▁mac	-5111
izer	-5112
▁delay	-5113
▁Code	-5114
▁foreign	-5115
▁male	-5116
▁spread	-5117
PP	-5118
▁Out	-5119
▁arriv	-5120
▁agg	-5121
▁assume	-5122
Color	-5123
▁denied	-5124
circ	-5125
ventional	-5126
▁mit	-5127
title	-5128
cel	-5129
atever	-5130
▁expand	-5131
New	-5132
▁investigation	-5133
▁tend	-5134
Hand	-5135
▁summary	-5136
▁wife	-5137
▁scen	-5138
pol	-5139
▁tour	-5140
▁hair	-5141
──	-5142
▁hour	-5143
Not	-5144
▁exception	-5145
▁rout	-5146
ipp	-5147
▁chemical	-5148
▁experiment	-5149
▁Both	-5150
▁complaint	-5151
▁-->	-5152
▁tree	-5153
▁therm	-5154
gar	-5155
asp	-5156
ync	-5157
▁straight	-5158
iled	-5159
▁Ret	-5160
normal	-5161
PO	-5162
4){	-5163
za	-5164
▁specifically	-5165
▁45	-5166
▁ri	-5167
▁none	-5168
ondon	-5169
Sc	-5170
Des	-5171
-1)	-5172
▁exercise	-5173
▁bud	-5174
open	-5175
▁shift	-5176
▁rapid	-5177
yst	-5178
url	-5179
▁liquid	-5180
▁sup	-5181
ptr	-5182
▁sexual	-5183
▁(!	-5184
▁$1	-5185
untu	-5186
MO	-5187
Code	-5188
▁challenge	-5189
2]	-5190
ldots	-5191
uman	-5192
orter	-5193
▁protected	-5194
▁solutions	-5195
content	-5196
▁rul	-5197
▁click	-5198
▁Super	-5199
▁officials	-5200
▁strategy	-5201
▁maybe	-5202
▁nil	-5203
asion	-5204
▁surgery	-5205
lam	-5206
cs	-5207
▁families	-5208
▁alternative	-5209
well	-5210
▁tested	-5211
ria	-5212
ado	-5213
▁plans	-5214
istant	-5215
▁club	-5216
▁mill	-5217
bre	-5218
▁48	-5219
▁serve	-5220
▁News	-5221
▁entry	-5222
▁neur	-5223
%,	-5224
▁Read	-5225
▁spent	-5226
▁shot	-5227
▁CH	-5228
61	-5229
▁AS	-5230
▁election	-5231
LA	-5232
=1}	-5233
▁push	-5234
rench	-5235
▁mentioned	-5236
7-	-5237
▁optim	-5238
aughter	-5239
▁truth	-5240
rance	-5241
olean	-5242
ignment	-5243
▁Second	-5244
▁sell	-5245
Over	-5246
rary	-5247
If	-5248
pass	-5249
arant	-5250
▁debt	-5251
▁Indian	-5252
source	-5253
icial	-5254
▁career	-5255
Request	-5256
▁Please	-5257
▁2015	-5258
▁despite	-5259
api	-5260
▁prepared	-5261
anned	-5262
ara	-5263
arian	-5264
▁java	-5265
▁thick	-5266
▁Bank	-5267
xx	-5268
▁People	-5269
ario	-5270
▁improved	-5271
ART	-5272
Phi	-5273
▁novel	-5274
▁cycle	-5275
oul	-5276
▁dismiss	-5277
▁studied	-5278
▁student	-5279
▁("	-5280
▁typically	-5281
▁combined	-5282
▁unless	-5283
current	-5284
▁minimum	-5285
aa	-5286
▁leads	-5287
▁sto	-5288
▁plate	-5289
▁circumstances	-5290
▁nuclear	-5291
▁lip	-5292
03	-5293
ptions	-5294
▁metal	-5295
........	-5296
ota	-5297
host	-5298
▁(5	-5299
▁arm	-5300
▁female	-5301
▁park	-5302
▁diet	-5303
igration	-5304
PT	-5305
iced	-5306
▁0.5	-5307
▁Are	-5308
▁ded	-5309
▁substr	-5310
actory	-5311
▁sentence	-5312
iders	-5313
olid	-5314
▁communication	-5315
▁commercial	-5316
▁growing	-5317
ascular	-5318
▁controls	-5319
▁progress	-5320
▁Group	-5321
abil	-5322
3}	-5323
▁Sur	-5324
riday	-5325
going	-5326
▁happy	-5327
▁guid	-5328
▁successful	-5329
tra	-5330
EE	-5331
nbsp	-5332
▁experimental	-5333
▁Ev	-5334
▁protocol	-5335
▁plus	-5336
abs	-5337
▁hypot	-5338
▁survival	-5339
frame	-5340
itivity	-5341
create	-5342
XX	-5343
icks	-5344
▁touch	-5345
▁agent	-5346
▁employees	-5347
IA	-5348
▁Up	-5349
enced	-5350
▁confirmed	-5351
▁vote	-5352
▁die	-5353
▁links	-5354
▁src	-5355
▁kids	-5356
▁Supreme	-5357
▁monitor	-5358
▁appellant	-5359
rely	-5360
fected	-5361
▁motor	-5362
▁operations	-5363
otimes	-5364
ipment	-5365
▁electr	-5366
iant	-5367
Log	-5368
▁shoot	-5369
stract	-5370
▁encoura	-5371
▁molecular	-5372
▁Fe	-5373
iling	-5374
▁seed	-5375
▁agreed	-5376
▁induced	-5377
▁TV	-5378
dict	-5379
IO	-5380
oto	-5381
▁raised	-5382
▁Black	-5383
▁Google	-5384
ellig	-5385
▁illust	-5386
CM	-5387
▁professional	-5388
QL	-5389
itz	-5390
▁Ke	-5391
({\	-5392
▁tools	-5393
inese	-5394
▁analyzed	-5395
Out	-5396
orge	-5397
▁9.	-5398
▁eye	-5399
▁affected	-5400
▁hop	-5401
▁Oh	-5402
▁reached	-5403
ingu	-5404
▁classes	-5405
▁society	-5406
▁whereas	-5407
▁officer	-5408
▁association	-5409
▁Face	-5410
▁6,	-5411
▁handle	-5412
▁minor	-5413
08	-5414
osen	-5415
▁trig	-5416
▁statute	-5417
Date	-5418
▁explain	-5419
_{2	-5420
▁evolution	-5421
▁perhaps	-5422
build	-5423
▁occurred	-5424
rient	-5425
mand	-5426
oute	-5427
3⁄4	-5428
prime	-5429
"></	-5430
aser	-5431
inger	-5432
▁nice	-5433
10.	-5434
▁causes	-5435
▁transl	-5436
▁(3)	-5437
▁probability	-5438
▁Copy	-5439
▁talking	-5440
▁buffer	-5441
▁efficient	-5442
▁proport	-5443
▁2010	-5444
**)	-5445
▁gal	-5446
▁collected	-5447
bolds	-5448
▁efforts	-5449
idden	-5450
▁Sund	-5451
▁surround	-5452
▁danger	-5453
▁cop	-5454
ingly	-5455
subset	-5456
▁mix	-5457
izations	-5458
run	-5459
▁storage	-5460
▁Dan	-5461
▁traditional	-5462
▁couldn	-5463
▁cru	-5464
▁Rober	-5465
▁calls	-5466
▁---	-5467
▁piece	-5468
▁sust	-5469
▁introduced	-5470
▁prepar	-5471
Be	-5472
▁estimated	-5473
acters	-5474
idem	-5475
▁credit	-5476
▁medic	-5477
▁Such	-5478
Fl	-5479
▁gradu	-5480
▁explained	-5481
▁${	-5482
Model	-5483
CON	-5484
OW	-5485
boldsymbol	-5486
(2	-5487
oes	-5488
▁remaining	-5489
asma	-5490
under	-5491
len	-5492
RS	-5493
▁wants	-5494
ca	-5495
AV	-5496
Lambda	-5497
Build	-5498
iat	-5499
▁catch	-5500
▁prosec	-5501
▁diagnosis	-5502
▁requirements	-5503
▁James	-5504
▁techniques	-5505
-12	-5506
▁electric	-5507
▁Friday	-5508
▁format	-5509
^−	-5510
▁enzym	-5511
▁(4	-5512
actor	-5513
ialog	-5514
▁London	-5515
chers	-5516
▁discussion	-5517
▁Wed	-5518
Sigma	-5519
▁feet	-5520
▁correlation	-5521
▁2017	-5522
▁protection	-5523
▁relation	-5524
▁cast	-5525
▁suggests	-5526
▁huge	-5527
mail	-5528
▁sun	-5529
appa	-5530
▁34	-5531
▁bab	-5532
▁mental	-5533
▁faith	-5534
▁algorithm	-5535
▁behavi	-5536
ometry	-5537
▁wait	-5538
▁criminal	-5539
ypes	-5540
User	-5541
Ser	-5542
▁histor	-5543
▁advantage	-5544
▁auto	-5545
▁chrom	-5546
▁kin	-5547
▁kept	-5548
▁implic	-5549
▁Class	-5550
▁Texas	-5551
produ	-5552
▁chain	-5553
ulf	-5554
BA	-5555
▁AL	-5556
▁cardi	-5557
▁inflamm	-5558
▁bra	-5559
▁vert	-5560
▁2011	-5561
▁&=	-5562
Count	-5563
▁certainly	-5564
▁33	-5565
▁convert	-5566
▁East	-5567
▁occup	-5568
71	-5569
post	-5570
tage	-5571
▁lock	-5572
nam	-5573
Element	-5574
''	-5575
▁()	-5576
▁pros	-5577
500	-5578
▁died	-5579
▁Rich	-5580
ographic	-5581
itled	-5582
resents	-5583
⁄2	-5584
▁stream	-5585
▁records	-5586
cohol	-5587
wood	-5588
▁Micro	-5589
▁biggest	-5590
inner	-5591
▁pun	-5592
reedom	-5593
},\	-5594
iny	-5595
1.0	-5596
▁Monday	-5597
▁absence	-5598
▁adding	-5599
▁MS	-5600
▁Direct	-5601
▁forces	-5602
▁Jack	-5603
opic	-5604
github	-5605
▁movie	-5606
▁kid	-5607
▁generation	-5608
▁organization	-5609
▁optical	-5610
dir	-5611
/201	-5612
▁served	-5613
tem	-5614
inity	-5615
.*	-5616
▁AR	-5617
▁creating	-5618
▁purposes	-5619
write	-5620
▁Commun	-5621
▁offers	-5622
▁responses	-5623
▁thread	-5624
▁British	-5625
▁Once	-5626
▁-3*	-5627
isation	-5628
arr	-5629
ayer	-5630
▁derived	-5631
▁tempor	-5632
▁citiz	-5633
ivery	-5634
▁older	-5635
Service	-5636
▁external	-5637
▁football	-5638
▁whom	-5639
ka	-5640
▁Green	-5641
▁polic	-5642
▁voice	-5643
▁breast	-5644
^1	-5645
ci	-5646
cknow	-5647
▁drop	-5648
▁intended	-5649
allel	-5650
ban	-5651
▁fold	-5652
hens	-5653
aud	-5654
▁quantum	-5655
▁van	-5656
▁properly	-5657
sf	-5658
▁tal	-5659
page	-5660
which	-5661
ymph	-5662
▁subjects	-5663
▁manif	-5664
▁driver	-5665
Trans	-5666
▁economy	-5667
void	-5668
▁drink	-5669
▁authority	-5670
▁resolution	-5671
▁schools	-5672
mbox	-5673
▁attorney	-5674
mmet	-5675
▁arbit	-5676
▁doll	-5677
kg	-5678
▁Like	-5679
▁killed	-5680
▁missing	-5681
▁echo	-5682
nonumber	-5683
▁Thanks	-5684
▁trou	-5685
▁coe	-5686
▁Canada	-5687
▁picture	-5688
ologies	-5689
itory	-5690
arth	-5691
Ent	-5692
▁extent	-5693
▁UN	-5694
▁symmet	-5695
CF	-5696
▁mist	-5697
▁science	-5698
▁floor	-5699
osc	-5700
▁decreased	-5701
▁animal	-5702
sole	-5703
Group	-5704
▁Jew	-5705
induced	-5706
▁represents	-5707
▁joint	-5708
▁pool	-5709
▁regist	-5710
▁Ca	-5711
Inst	-5712
(&	-5713
▁Ins	-5714
agram	-5715
ferent	-5716
▁ideas	-5717
▁cat	-5718
▁director	-5719
rated	-5720
▁contained	-5721
▁largest	-5722
▁CR	-5723
▁loop	-5724
▁interests	-5725
▁func	-5726
▁Chinese	-5727
di	-5728
▁describe	-5729
ensuremath	-5730
▁communic	-5731
▁2)	-5732
.](	-5733
▁radio	-5734
▁mechanisms	-5735
▁officers	-5736
▁Ben	-5737
▁symb	-5738
Message	-5739
▁Gra	-5740
icians	-5741
▁Circ	-5742
▁teams	-5743
▁technique	-5744
▁convers	-5745
▁experien	-5746
Image	-5747
▁summer	-5748
▁earn	-5749
Dis	-5750
▁FOR	-5751
▁virus	-5752
cor	-5753
/4	-5754
zon	-5755
(0,	-5756
UM	-5757
▁errors	-5758
▁glass	-5759
▁uint	-5760
CG	-5761
doc	-5762
▁comfort	-5763
po	-5764
▁beautiful	-5765
Read	-5766
▁firm	-5767
}}_	-5768
▁SO	-5769
▁vel	-5770
▁Eq	-5771
▁distinct	-5772
▁38	-5773
▁slightly	-5774
▁sales	-5775
▁$2	-5776
▁charged	-5777
_.	-5778
istan	-5779
model	-5780
▁dra	-5781
\|	-5782
▁wouldn	-5783
▁membrane	-5784
esis	-5785
▁Facebook	-5786
anging	-5787
▁Mart	-5788
▁Foundation	-5789
▁shared	-5790
▁Michael	-5791
▁dry	-5792
▁42	-5793
▁belong	-5794
}}_{	-5795
▁projects	-5796
▁empt	-5797
▁sav	-5798
utor	-5799
▁crime	-5800
▁Arm	-5801
▁characters	-5802
▁entered	-5803
pa	-5804
src	-5805
isher	-5806
▁coverage	-5807
▁Anal	-5808
07	-5809
▁situ	-5810
▁conventional	-5811
-201	-5812
▁epis	-5813
▁opening	-5814
▁strugg	-5815
TS	-5816
uesday	-5817
▁latest	-5818
BU	-5819
DR	-5820
▁Service	-5821
jo	-5822
dem	-5823
}}{	-5824
▁Del	-5825
▁Met	-5826
▁vent	-5827
").	-5828
▁Street	-5829
06	-5830
▁announced	-5831
ename	-5832
({	-5833
ugin	-5834
▁offered	-5835
▁exchange	-5836
rian	-5837
etes	-5838
▁gone	-5839
▁0*	-5840
-7	-5841
▁Council	-5842
▁kill	-5843
▁Day	-5844
”.	-5845
▁conserv	-5846
▁Western	-5847
)-	-5848
nel	-5849
▁rise	-5850
▁teacher	-5851
ilarly	-5852
▁Use	-5853
Box	-5854
specific	-5855
▁End	-5856
▁doubt	-5857
▁Sunday	-5858
▁Mat	-5859
▁integer	-5860
>>	-5861
▁conver	-5862
▁query	-5863
▁1:	-5864
onic	-5865
▁+=	-5866
UE	-5867
rd	-5868
▁neighbor	-5869
abla	-5870
▁supply	-5871
▁holding	-5872
▁Techn	-5873
orders	-5874
▁kit	-5875
▁neuro	-5876
▁gain	-5877
▁gold	-5878
was	-5879
]:	-5880
▁interactions	-5881
▁expert	-5882
▁involve	-5883
▁profile	-5884
kin	-5885
▁rank	-5886
sens	-5887
▁eat	-5888
▁views	-5889
%%	-5890
ariant	-5891
▁repeated	-5892
▁decrease	-5893
▁owners	-5894
racy	-5895
\[	-5896
▁agency	-5897
server	-5898
▁composition	-5899
▁cryst	-5900
rich	-5901
GL	-5902
▁cold	-5903
▁library	-5904
▁returns	-5905
venue	-5906
▁smooth	-5907
▁ER	-5908
▁Mal	-5909
Inter	-5910
▁py	-5911
PC	-5912
ago	-5913
▁agents	-5914
▁concentrations	-5915
▁guess	-5916
▁prison	-5917
▁button	-5918
▁thank	-5919
▁Port	-5920
.[@	-5921
▁grand	-5922
▁analyses	-5923
▁PD	-5924
▁feeling	-5925
Up	-5926
)/(	-5927
▁outcome	-5928
hetic	-5929
▁juris	-5930
▁operating	-5931
▁dose	-5932
▁Tuesday	-5933
ponse	-5934
09	-5935
▁Bre	-5936
000000	-5937
▁Leg	-5938
▁quarter	-5939
▁plants	-5940
BI	-5941
▁Form	-5942
▁receptor	-5943
▁completed	-5944
▁weap	-5945
▁Commit	-5946
pack	-5947
▁elim	-5948
▁electron	-5949
TO	-5950
ructions	-5951
▁ring	-5952
▁FIG	-5953
ansion	-5954
▁genetic	-5955
▁trend	-5956
▁generate	-5957
▁lit	-5958
▁refer	-5959
oom	-5960
▁signals	-5961
ATION	-5962
▁wind	-5963
anges	-5964
iler	-5965
▁defendants	-5966
▁<!	-5967
local	-5968
draw	-5969
▁patterns	-5970
valid	-5971
mic	-5972
MR	-5973
pled	-5974
elines	-5975
cence	-5976
(1)	-5977
ya	-5978
▁equivalent	-5979
▁finite	-5980
▁existence	-5981
ALL	-5982
▁diseases	-5983
▁cir	-5984
▁maintain	-5985
▁Smith	-5986
▁Air	-5987
lif	-5988
ville	-5989
▁configuration	-5990
+1}	-5991
▁possibility	-5992
▁III	-5993
kappa	-5994
▁driving	-5995
▁appeared	-5996
tes	-5997
KE	-5998
▁spectrum	-5999
asks	-6000
riage	-6001
nabla	-6002
can	-6003
▁ok	-6004
▁indicates	-6005
mem	-6006
▁controlled	-6007
▁stable	-6008
▁Big	-6009
▁guy	-6010
dots	-6011
onald	-6012
▁stars	-6013
▁heavy	-6014
itect	-6015
oted	-6016
Act	-6017
query	-6018
▁session	-6019
▁carbon	-6020
widet	-6021
▁incorpor	-6022
▁mobile	-6023
2*	-6024
▁Stat	-6025
widetilde	-6026
4}	-6027
▁equipment	-6028
▁identity	-6029
Property	-6030
▁Company	-6031
▁importance	-6032
▁hus	-6033
▁None	-6034
summary	-6035
illa	-6036
▁Find	-6037
▁conclusion	-6038
▁brother	-6039
care	-6040
▁Mac	-6041
Fil	-6042
-20	-6043
xml	-6044
▁7,	-6045
-9	-6046
▁2008	-6047
▁confirm	-6048
▁Copyright	-6049
▁TR	-6050
oman	-6051
▁Sum	-6052
▁compens	-6053
▁sequences	-6054
reated	-6055
▁Work	-6056
▁holds	-6057
▁interested	-6058
▁particles	-6059
xture	-6060
▁statements	-6061
▁secondary	-6062
▁digital	-6063
)).	-6064
▁wat	-6065
▁runs	-6066
▁referred	-6067
▁ing	-6068
chen	-6069
▁catal	-6070
▁Institute	-6071
gebra	-6072
▁mouse	-6073
▁Jes	-6074
▁tox	-6075
▁measurements	-6076
hi	-6077
▁Ital	-6078
▁flex	-6079
▁2018	-6080
FI	-6081
▁disp	-6082
▁instr	-6083
▁Theorem	-6084
▁31	-6085
▁Di	-6086
▁nan	-6087
▁survey	-6088
▁-4*	-6089
▁CA	-6090
ITY	-6091
▁peace	-6092
ursday	-6093
▁template	-6094
▁suff	-6095
nesday	-6096
▁&\	-6097
Manager	-6098
plify	-6099
▁meant	-6100
**]{},	-6101
jected	-6102
▁developing	-6103
▁pregn	-6104
▁whatever	-6105
▁float	-6106
▁remainder	-6107
▁Div	-6108
ilit	-6109
▁wish	-6110
▁Miss	-6111
ainer	-6112
SH	-6113
▁MA	-6114
Sub	-6115
ba	-6116
sem	-6117
arp	-6118
▁excess	-6119
ORT	-6120
▁bow	-6121
faces	-6122
Line	-6123
uries	-6124
▁representation	-6125
▁aren	-6126
▁reality	-6127
▁Mem	-6128
last	-6129
iveness	-6130
▁approved	-6131
▁alcohol	-6132
▁chronic	-6133
▁[1	-6134
▁wel	-6135
eric	-6136
crete	-6137
▁Hist	-6138
▁seemed	-6139
▁balance	-6140
▁noise	-6141
▁excell	-6142
▁farm	-6143
▁environmental	-6144
omorph	-6145
▁apprec	-6146
▁issued	-6147
RL	-6148
▁virtual	-6149
▁SD	-6150
dt	-6151
▁categ	-6152
▁Cell	-6153
▁jobs	-6154
ston	-6155
▁download	-6156
▁warrant	-6157
▁12.	-6158
▁train	-6159
MT	-6160
▁Sun	-6161
▁substantial	-6162
▁Bi	-6163
▁abuse	-6164
ocity	-6165
▁square	-6166
▁diab	-6167
▁attract	-6168
ancing	-6169
▁pure	-6170
▁highlight	-6171
▁Follow	-6172
▁implementation	-6173
▁happens	-6174
ouble	-6175
▁estimate	-6176
poss	-6177
▁Wednesday	-6178
▁spirit	-6179
▁extension	-6180
▁{{\	-6181
▁testified	-6182
istent	-6183
▁transmission	-6184
▁resear	-6185
abilities	-6186
▁latter	-6187
reshold	-6188
rig	-6189
▁Thursday	-6190
5){	-6191
▁EX	-6192
▁charges	-6193
icated	-6194
▁liver	-6195
0;	-6196
▁extremely	-6197
▁Defendant	-6198
ensor	-6199
▁Ref	-6200
▁Christian	-6201
▁Kore	-6202
BL	-6203
▁explicit	-6204
▁Lou	-6205
▁partners	-6206
_{1}	-6207
▁ON	-6208
▁Web	-6209
▁French	-6210
▁college	-6211
▁regulation	-6212
▁examples	-6213
1:	-6214
web	-6215
▁serum	-6216
▁cm	-6217
SI	-6218
▁empty	-6219
ERT	-6220
▁Open	-6221
▁speech	-6222
asc	-6223
▁signed	-6224
▁Judge	-6225
▁covered	-6226
▁Press	-6227
1;	-6228
inder	-6229
▁Americans	-6230
-1}	-6231
▁fluid	-6232
▁Lem	-6233
▁customers	-6234
▁Before	-6235
Reg	-6236
EO	-6237
lem	-6238
/5	-6239
▁literature	-6240
▁hab	-6241
▁lung	-6242
property	-6243
sor	-6244
▁intent	-6245
▁Flor	-6246
inte	-6247
▁1;	-6248
▁opened	-6249
▁appar	-6250
ditionally	-6251
▁volunt	-6252
▁Tom	-6253
eless	-6254
▁cele	-6255
▁Time	-6256
▁occurs	-6257
▁Union	-6258
▁inner	-6259
▁receiving	-6260
ogene	-6261
▁formula	-6262
▁recorded	-6263
▁plasma	-6264
▁stre	-6265
▁Satur	-6266
▁1.2	-6267
▁compounds	-6268
▁spot	-6269
ln	-6270
▁burn	-6271
▁leader	-6272
▁digit	-6273
▁prefer	-6274
win	-6275
sey	-6276
▁allowing	-6277
What	-6278
▁networks	-6279
▁evaluated	-6280
▁Put	-6281
▁Committee	-6282
hent	-6283
default	-6284
▁extended	-6285
▁born	-6286
▁delivery	-6287
▁vill	-6288
BO	-6289
▁Government	-6290
ytic	-6291
!"	-6292
det	-6293
▁cycl	-6294
▁Jer	-6295
▁League	-6296
▁decisions	-6297
main	-6298
▁terror	-6299
▁Method	-6300
▁subsequent	-6301
child	-6302
▁underlying	-6303
▁11.	-6304
▁violence	-6305
result	-6306
gments	-6307
▁10,	-6308
▁percentage	-6309
▁limitations	-6310
▁2009	-6311
▁scene	-6312
▁Bel	-6313
▁assay	-6314
false	-6315
▁arguments	-6316
▁church	-6317
amily	-6318
amine	-6319
▁500	-6320
cluding	-6321
ows	-6322
▁assessment	-6323
ini	-6324
▁outcomes	-6325
what	-6326
▁uniform	-6327
▁wood	-6328
▁appoint	-6329
▁wire	-6330
▁owner	-6331
▁Type	-6332
pes	-6333
▁concerns	-6334
rape	-6335
apache	-6336
.</	-6337
ulin	-6338
▁guarant	-6339
=======	-6340
▁mostly	-6341
▁thousands	-6342
▁Iran	-6343
duc	-6344
ipped	-6345
ishes	-6346
▁leaves	-6347
;\	-6348
▁College	-6349
▁manufacture	-6350
▁immune	-6351
zeta	-6352
connect	-6353
▁Free	-6354
▁constitution	-6355
▁sale	-6356
▁efficiency	-6357
▁depends	-6358
▁SN	-6359
▁Germany	-6360
My	-6361
▁represented	-6362
ror	-6363
▁specified	-6364
lets	-6365
rog	-6366
Button	-6367
ributes	-6368
▁criteria	-6369
▁${{\	-6370
format	-6371
[0]	-6372
▁lymph	-6373
itative	-6374
▁muscle	-6375
▁discrim	-6376
endment	-6377
ailed	-6378
▁license	-6379
okes	-6380
▁examined	-6381
▁budget	-6382
^{-	-6383
lang	-6384
▁raise	-6385
▁CT	-6386
▁curve	-6387
▁helped	-6388
▁Sal	-6389
lands	-6390
▁century	-6391
▁Good	-6392
System	-6393
ifications	-6394
▁Back	-6395
stein	-6396
erest	-6397
omes	-6398
height	-6399
▁Association	-6400
ua	-6401
▁Dec	-6402
▁voltage	-6403
▁Last	-6404
aneous	-6405
▁greatest	-6406
▁eventually	-6407
legal	-6408
ups	-6409
tex	-6410
▁File	-6411
▁Bay	-6412
\{	-6413
▁scheme	-6414
ilty	-6415
ortunately	-6416
▁incident	-6417
▁adult	-6418
ostic	-6419
edy	-6420
▁6*	-6421
▁Phil	-6422
:19	-6423
▁Tod	-6424
▁WH	-6425
▁calling	-6426
▁defect	-6427
▁candidate	-6428
▁ahead	-6429
▁NO	-6430
ki	-6431
oking	-6432
oret	-6433
▁purchase	-6434
▁Only	-6435
▁guys	-6436
▁husband	-6437
▁vary	-6438
▁granted	-6439
▁enforce	-6440
bal	-6441
▁Saturday	-6442
▁Rob	-6443
IST	-6444
▁spring	-6445
▁elev	-6446
▁applicable	-6447
▁Instead	-6448
house	-6449
AND	-6450
omal	-6451
▁positions	-6452
▁learned	-6453
▁Hill	-6454
▁policies	-6455
▁investigated	-6456
▁Whe	-6457
▁powerful	-6458
just	-6459
▁Robert	-6460
enu	-6461
▁restaur	-6462
▁Science	-6463
▁books	-6464
ampions	-6465
sect	-6466
▁achieved	-6467
▁Mo	-6468
SU	-6469
van	-6470
▁Wil	-6471
▁Serv	-6472
yan	-6473
▁8,	-6474
asure	-6475
▁typical	-6476
phone	-6477
From	-6478
operative	-6479
antly	-6480
2/	-6481
▁acknow	-6482
ests	-6483
▁fraction	-6484
▁Pen	-6485
▁standards	-6486
▁CL	-6487
▁procedures	-6488
▁39	-6489
otes	-6490
▁dram	-6491
▁gar	-6492
▁mixed	-6493
rowser	-6494
after	-6495
▁cere	-6496
pg	-6497
▁44	-6498
▁Gold	-6499
▁goals	-6500
Call	-6501
_{1	-6502
edge	-6503
▁changing	-6504
▁recovery	-6505
akers	-6506
SC	-6507
▁journal	-6508
itely	-6509
look	-6510
Source	-6511
▁Four	-6512
▁leaving	-6513
▁pathway	-6514
▁-5*	-6515
'.	-6516
SON	-6517
▁metabol	-6518
▁pert	-6519
▁desired	-6520
?”	-6521
▁Vir	-6522
▁plane	-6523
dimensional	-6524
assert	-6525
▁entitled	-6526
▁relief	-6527
FP	-6528
how	-6529
▁tub	-6530
▁flat	-6531
▁Does	-6532
})$	-6533
Query	-6534
▁flav	-6535
▁knows	-6536
▁investment	-6537
▁PR	-6538
standing	-6539
supplementary	-6540
ipal	-6541
▁Church	-6542
▁beg	-6543
▁univers	-6544
zen	-6545
▁warm	-6546
▁isolated	-6547
message	-6548
▁heter	-6549
dependent	-6550
▁Log	-6551
▁substrate	-6552
Ref	-6553
▁polar	-6554
appro	-6555
▁Sam	-6556
target	-6557
▁evaluation	-6558
▁Alex	-6559
▁films	-6560
CTION	-6561
▁funds	-6562
▁category	-6563
endif	-6564
ette	-6565
▁boy	-6566
0$	-6567
**,	-6568
▁acts	-6569
▁Bur	-6570
▁sections	-6571
night	-6572
Method	-6573
▁Where	-6574
▁conclude	-6575
▁Cle	-6576
▁insp	-6577
elled	-6578
▁Pet	-6579
▁determination	-6580
▁restrict	-6581
ructure	-6582
▁detailed	-6583
mt	-6584
1).	-6585
▁stored	-6586
▁CP	-6587
▁traffic	-6588
▁morph	-6589
▁payment	-6590
▁strongly	-6591
▁revers	-6592
▁cluster	-6593
▁pad	-6594
UD	-6595
":"	-6596
)=\	-6597
▁shut	-6598
▁Russia	-6599
▁fuel	-6600
rl	-6601
▁committed	-6602
▁accord	-6603
**]{}	-6604
.$$	-6605
▁chosen	-6606
▁Mary	-6607
Client	-6608
▁easier	-6609
ias	-6610
ura	-6611
▁fish	-6612
bed	-6613
SO	-6614
▁Windows	-6615
▁Na	-6616
ested	-6617
▁ran	-6618
▁manager	-6619
▁spend	-6620
json	-6621
▁fourth	-6622
▁galax	-6623
▁England	-6624
▁gly	-6625
▁directed	-6626
▁bond	-6627
▁Develop	-6628
bug	-6629
product	-6630
▁documents	-6631
▁Party	-6632
othing	-6633
cretion	-6634
▁master	-6635
▁considering	-6636
▁indeed	-6637
olf	-6638
▁fill	-6639
▁nav	-6640
aming	-6641
▁draft	-6642
isted	-6643
▁2000	-6644
^2^	-6645
Point	-6646
▁symbol	-6647
▁Program	-6648
▁incub	-6649
▁lab	-6650
▁prices	-6651
3]	-6652
▁replic	-6653
MI	-6654
▁fif	-6655
▁alter	-6656
6*	-6657
▁vacc	-6658
▁Brown	-6659
_{{\	-6660
annels	-6661
▁listed	-6662
▁SP	-6663
\!	-6664
▁IF	-6665
▁George	-6666
cis	-6667
▁apparatus	-6668
▁offense	-6669
Stream	-6670
▁Federal	-6671
ocytes	-6672
orrow	-6673
▁HIV	-6674
▁resource	-6675
▁Japanese	-6676
ector	-6677
▁propos	-6678
▁equations	-6679
▁tag	-6680
▁thanks	-6681
▁fol	-6682
▁depending	-6683
▁observations	-6684
diction	-6685
▁Name	-6686
▁damages	-6687
aine	-6688
▁freedom	-6689
▁duty	-6690
▁emph	-6691
▁oxid	-6692
▁IP	-6693
▁cris	-6694
▁join	-6695
▁nodes	-6696
cdots	-6697
▁paint	-6698
process	-6699
EC	-6700
dr	-6701
▁196	-6702
▁forced	-6703
NO	-6704
▁modified	-6705
▁minim	-6706
▁religious	-6707
arc	-6708
ipher	-6709
▁resulted	-6710
null	-6711
▁seeing	-6712
▁conflict	-6713
(0	-6714
-0.	-6715
▁forth	-6716
weight	-6717
▁focused	-6718
esh	-6719
TY	-6720
gy	-6721
▁Florida	-6722
▁haven	-6723
▁consult	-6724
▁Results	-6725
▁measurement	-6726
▁fees	-6727
estic	-6728
▁Lin	-6729
button	-6730
gt	-6731
▁CI	-6732
rep	-6733
▁intellig	-6734
▁mo	-6735
▁fans	-6736
▁compr	-6737
▁cup	-6738
▁assuming	-6739
▁accum	-6740
-19	-6741
uls	-6742
/\	-6743
vo	-6744
▁Appe	-6745
aper	-6746
▁skills	-6747
▁stories	-6748
▁amaz	-6749
TC	-6750
ato	-6751
amental	-6752
FC	-6753
ayout	-6754
ella	-6755
itable	-6756
bert	-6757
ivo	-6758
TER	-6759
▁Rule	-6760
▁earth	-6761
▁advert	-6762
▁believed	-6763
▁excellent	-6764
1].	-6765
▁salt	-6766
0,0,	-6767
▁angle	-6768
▁PC	-6769
ih	-6770
At	-6771
▁Field	-6772
▁compare	-6773
▁employed	-6774
[1]	-6775
▁Ber	-6776
▁Circuit	-6777
▁enhance	-6778
▁plays	-6779
▁supposed	-6780
▁communities	-6781
clusive	-6782
▁0.1	-6783
>(	-6784
▁versus	-6785
▁possibly	-6786
▁Internet	-6787
▁afford	-6788
▁Hence	-6789
"}.	-6790
▁accident	-6791
▁oblig	-6792
▁stimul	-6793
▁£	-6794
▁Australia	-6795
▁(10	-6796
Input	-6797
▁Object	-6798
while	-6799
▁sch	-6800
▁concern	-6801
first	-6802
rapeut	-6803
▁Mex	-6804
fold	-6805
▁approaches	-6806
AGE	-6807
tings	-6808
cf	-6809
▁Lord	-6810
▁accuracy	-6811
rypt	-6812
umns	-6813
▁funding	-6814
alty	-6815
▁Mil	-6816
▁rock	-6817
ASS	-6818
▁Twitter	-6819
▁housing	-6820
▁neither	-6821
▁investigate	-6822
imately	-6823
▁300	-6824
▁batter	-6825
▁extends	-6826
bound	-6827
ounce	-6828
▁Office	-6829
▁Islam	-6830
▁scores	-6831
▁settings	-6832
▁employee	-6833
▁PH	-6834
rive	-6835
▁preval	-6836
▁Jesus	-6837
▁Their	-6838
▁twice	-6839
cp	-6840
1],	-6841
▁seek	-6842
▁boundary	-6843
DB	-6844
dat	-6845
otherapy	-6846
▁plot	-6847
ushed	-6848
▁electronic	-6849
▁datas	-6850
)*(	-6851
▁Soft	-6852
▁confidence	-6853
--[@	-6854
▁plaintiffs	-6855
ceived	-6856
▁depth	-6857
cat	-6858
▁Sand	-6859
context	-6860
▁sensitivity	-6861
▁guilty	-6862
ffe	-6863
▁PRO	-6864
▁ye	-6865
▁Tur	-6866
plet	-6867
▁planning	-6868
Co	-6869
{{	-6870
▁cos	-6871
small	-6872
▁involving	-6873
▁helps	-6874
"),	-6875
outhern	-6876
▁stack	-6877
▁mainly	-6878
▁Next	-6879
▁Hall	-6880
Override	-6881
▁tun	-6882
▁transcription	-6883
▁experienced	-6884
▁nm	-6885
▁citizens	-6886
▁64	-6887
va	-6888
_2$	-6889
imer	-6890
TA	-6891
▁evaluate	-6892
▁trials	-6893
▁intervention	-6894
Net	-6895
▁adults	-6896
▁msgid	-6897
Rep	-6898
▁Sing	-6899
oded	-6900
▁Spec	-6901
▁expansion	-6902
▁exposed	-6903
▁standing	-6904
▁contribution	-6905
ude	-6906
▁recip	-6907
▁shock	-6908
select	-6909
Controller	-6910
ician	-6911
▁analog	-6912
▁Johnson	-6913
)**	-6914
▁concerned	-6915
]),	-6916
▁daughter	-6917
▁relationships	-6918
▁framework	-6919
Rec	-6920
▁spat	-6921
organ	-6922
ORD	-6923
▁55	-6924
Result	-6925
real	-6926
:\	-6927
▁<!--	-6928
PH	-6929
▁About	-6930
▁dil	-6931
▁egg	-6932
SM	-6933
inton	-6934
▁bon	-6935
▁willing	-6936
▁rich	-6937
${	-6938
▁scope	-6939
▁explan	-6940
▁~~	-6941
event	-6942
pload	-6943
▁fab	-6944
▁demonstrate	-6945
▁ion	-6946
GB	-6947
▁margin	-6948
5).	-6949
▁signaling	-6950
▁mM	-6951
nav	-6952
▁relates	-6953
▁[2	-6954
▁assessed	-6955
▁Indeed	-6956
▁Republican	-6957
layout	-6958
////////////////	-6959
▁Three	-6960
flu	-6961
▁administr	-6962
▁constraint	-6963
▁------	-6964
▁advice	-6965
stood	-6966
▁Py	-6967
▁lose	-6968
▁intensity	-6969
▁street	-6970
ateral	-6971
▁==========	-6972
▁capable	-6973
law	-6974
▁Prof	-6975
ernel	-6976
▁Despite	-6977
▁advanced	-6978
▁49	-6979
▁1](#	-6980
▁WIT	-6981
scale	-6982
inn	-6983
▁ordered	-6984
inations	-6985
▁advance	-6986
▁continues	-6987
▁challenges	-6988
^+^	-6989
▁competition	-6990
GG	-6991
▁pal	-6992
▁www	-6993
itions	-6994
▁guide	-6995
UI	-6996
Comp	-6997
▁Ga	-6998
▁critic	-6999
umer	-7000
▁namespace	-7001
▁interval	-7002
▁dys	-7003
▁Mot	-7004
▁Russian	-7005
▁rent	-7006
▁pept	-7007
▁Simplify	-7008
▁ideal	-7009
Us	-7010
▁mand	-7011
▁potentially	-7012
riend	-7013
ulture	-7014
▁department	-7015
▁velocity	-7016
▁Justice	-7017
▁finished	-7018
Aut	-7019
rogen	-7020
etime	-7021
Vert	-7022
▁[[	-7023
ACK	-7024
▁suitable	-7025
img	-7026
sin	-7027
________________	-7028
▁View	-7029
▁biological	-7030
▁sam	-7031
▁persons	-7032
eles	-7033
enance	-7034
NF	-7035
▁Secret	-7036
gical	-7037
▁waiting	-7038
▁consent	-7039
▁imaging	-7040
▁burden	-7041
▁Mult	-7042
▁Java	-7043
missions	-7044
▁claimed	-7045
has	-7046
Number	-7047
1^	-7048
▁improvement	-7049
”,	-7050
▁strain	-7051
\<	-7052
ker	-7053
▁legisl	-7054
▁cogn	-7055
cup	-7056
▁arter	-7057
▁strict	-7058
▁remained	-7059
TE	-7060
▁harm	-7061
ROM	-7062
▁conference	-7063
that	-7064
▁SU	-7065
▁Thomas	-7066
▁Mean	-7067
▁duration	-7068
▁independ	-7069
▁47	-7070
▁statistical	-7071
▁north	-7072
▁deliver	-7073
▁partial	-7074
▁Great	-7075
▁rats	-7076
Content	-7077
iary	-7078
ometric	-7079
▁msgstr	-7080
▁lic	-7081
,'	-7082
1_	-7083
ivation	-7084
▁reverse	-7085
▁recall	-7086
Pr	-7087
▁nit	-7088
▁argues	-7089
▁Mass	-7090
1⁄2	-7091
▁font	-7092
▁Mill	-7093
output	-7094
▁German	-7095
▁adequ	-7096
▁2007	-7097
▁unknown	-7098
▁Ira	-7099
LS	-7100
▁spl	-7101
▁iron	-7102
▁humans	-7103
▁thin	-7104
orthern	-7105
status	-7106
▁Sil	-7107
▁Give	-7108
▁Bill	-7109
▁frequently	-7110
)*	-7111
▁mel	-7112
▁worse	-7113
$(	-7114
▁PA	-7115
▁sides	-7116
▁courts	-7117
mid	-7118
▁branch	-7119
}=\	-7120
▁Ok	-7121
▁Ann	-7122
▁hence	-7123
inates	-7124
▁(-	-7125
▁san	-7126
▁cash	-7127
std	-7128
eting	-7129
xygen	-7130
▁Offic	-7131
Ass	-7132
▁asking	-7133
▁axis	-7134
▁discovered	-7135
▁crow	-7136
▁ended	-7137
▁(1.	-7138
Base	-7139
gent	-7140
▁provision	-7141
▁IV	-7142
▁Nor	-7143
▁limits	-7144
INE	-7145
▁orient	-7146
▁decide	-7147
▁(6	-7148
▁suggesting	-7149
ifies	-7150
▁chief	-7151
▁poll	-7152
clusions	-7153
▁stopped	-7154
▁Project	-7155
▁phenomen	-7156
▁France	-7157
▁ANY	-7158
▁\>	-7159
▁violation	-7160
usal	-7161
▁necessarily	-7162
search	-7163
▁tight	-7164
▁Rad	-7165
arden	-7166
road	-7167
▁annual	-7168
3/	-7169
dule	-7170
client	-7171
▁Scott	-7172
arks	-7173
cuss	-7174
ashed	-7175
apped	-7176
"]	-7177
▁sole	-7178
▁murder	-7179
▁Plan	-7180
sd	-7181
▁Minister	-7182
agon	-7183
▁65	-7184
-1,	-7185
▁Stand	-7186
▁stability	-7187
je	-7188
apers	-7189
▁baby	-7190
▁Hel	-7191
iliar	-7192
▁radiation	-7193
▁oral	-7194
Ut	-7195
iot	-7196
▁marked	-7197
▁Tor	-7198
utely	-7199
▁bright	-7200
▁pharm	-7201
▁variation	-7202
▁ul	-7203
FO	-7204
▁assembly	-7205
▁ens	-7206
▁synd	-7207
▁threshold	-7208
▁References	-7209
▁ast	-7210
GE	-7211
edia	-7212
DL	-7213
▁tables	-7214
she	-7215
▁Senate	-7216
▁conven	-7217
▁Mad	-7218
Bl	-7219
▁DO	-7220
Ext	-7221
▁Sign	-7222
▁acute	-7223
▁46	-7224
yr	-7225
Head	-7226
(-	-7227
▁widely	-7228
▁colon	-7229
▁thereby	-7230
▁dimension	-7231
2_	-7232
Bar	-7233
▁offset	-7234
▁Appellant	-7235
▁nine	-7236
▁antibody	-7237
sa	-7238
▁numerous	-7239
▁instructions	-7240
FS	-7241
▁architect	-7242
▁seconds	-7243
▁linked	-7244
▁Review	-7245
32_	-7246
▁identification	-7247
Frame	-7248
▁mixture	-7249
orted	-7250
▁brand	-7251
▁implies	-7252
▁Ext	-7253
▁jump	-7254
▁indicating	-7255
▁43	-7256
▁rough	-7257
▁Check	-7258
▁Hy	-7259
▁possess	-7260
▁Its	-7261
▁arms	-7262
ears	-7263
▁Information	-7264
▁employment	-7265
rot	-7266
▁attacks	-7267
helial	-7268
ABLE	-7269
▁Fore	-7270
▁mRNA	-7271
▁°	-7272
Psi	-7273
▁recognized	-7274
entry	-7275
▁unable	-7276
jud	-7277
rine	-7278
▁_{	-7279
▁grav	-7280
▁Long	-7281
hedul	-7282
▁celebr	-7283
▁Non	-7284
FFFF	-7285
▁bag	-7286
ochem	-7287
▁Str	-7288
▁populations	-7289
Script	-7290
▁Vis	-7291
possible	-7292
▁supporting	-7293
iples	-7294
▁formal	-7295
▁mortality	-7296
cellular	-7297
▁concluded	-7298
▁aspects	-7299
▁opposite	-7300
▁Given	-7301
args	-7302
ita	-7303
▁enable	-7304
android	-7305
oster	-7306
▁Den	-7307
▁jurisdiction	-7308
plete	-7309
▁GL	-7310
▁interpretation	-7311
▁reprodu	-7312
▁vitro	-7313
roke	-7314
_4	-7315
▁parallel	-7316
▁Bas	-7317
▁Iraq	-7318
▁rare	-7319
▁accepted	-7320
ployment	-7321
▁ju	-7322
▁tick	-7323
charge	-7324
▁Police	-7325
antic	-7326
▁cort	-7327
dden	-7328
icago	-7329
▁practices	-7330
▁absolute	-7331
12.	-7332
▁cellular	-7333
▁pursu	-7334
▁interact	-7335
ensed	-7336
▁entirely	-7337
▁attend	-7338
▁EN	-7339
ju	-7340
▁corre	-7341
FR	-7342
▁ice	-7343
▁definitely	-7344
▁fundamental	-7345
▁attached	-7346
▁notes	-7347
▁render	-7348
▁disk	-7349
▁contribute	-7350
roduction	-7351
▁keeping	-7352
▁Prote	-7353
▁Mag	-7354
▁narrow	-7355
▁polymer	-7356
▁coach	-7357
There	-7358
▁massive	-7359
(2)	-7360
▁bone	-7361
▁gluc	-7362
hal	-7363
▁pix	-7364
▁suppl	-7365
▁south	-7366
Version	-7367
▁molecules	-7368
Action	-7369
▁export	-7370
del	-7371
▁degrees	-7372
▁starts	-7373
▁Av	-7374
icious	-7375
That	-7376
NN	-7377
MD	-7378
▁[]	-7379
▁destroy	-7380
▁info	-7381
Che	-7382
▁1.0	-7383
brid	-7384
▁distingu	-7385
widehat	-7386
▁consideration	-7387
"})	-7388
▁waste	-7389
▁compound	-7390
\]).	-7391
▁Those	-7392
▁route	-7393
ools	-7394
▁truly	-7395
▁requirement	-7396
▁Cap	-7397
▁Educ	-7398
▁Human	-7399
▁Step	-7400
▁anc	-7401
iverse	-7402
ERR	-7403
HS	-7404
▁appearance	-7405
▁stick	-7406
▁react	-7407
▁phil	-7408
lections	-7409
opath	-7410
cut	-7411
tyle	-7412
display	-7413
▁accompl	-7414
:"	-7415
▁commission	-7416
▁residents	-7417
cr	-7418
▁responsibility	-7419
▁technical	-7420
▁defic	-7421
▁mission	-7422
▁```	-7423
▁becoming	-7424
▁amounts	-7425
▁River	-7426
▁signs	-7427
▁camera	-7428
▁managed	-7429
▁dynamic	-7430
rency	-7431
▁75	-7432
▁12,	-7433
Sp	-7434
BP	-7435
["	-7436
▁56	-7437
1"	-7438
▁Equ	-7439
▁sqrt	-7440
only	-7441
▁doctor	-7442
equiv	-7443
▁gap	-7444
▁sin	-7445
apse	-7446
▁sought	-7447
▁ends	-7448
▁coh	-7449
▁relax	-7450
▁PCR	-7451
▁commonly	-7452
estion	-7453
AY	-7454
▁dependent	-7455
omial	-7456
anda	-7457
{2	-7458
▁articles	-7459
▁API	-7460
LC	-7461
ashion	-7462
▁assigned	-7463
png	-7464
append	-7465
inv	-7466
▁breath	-7467
unit	-7468
▁effectively	-7469
","	-7470
▁101	-7471
orters	-7472
▁Child	-7473
+01	-7474
xe	-7475
anal	-7476
▁partner	-7477
▁Math	-7478
▁estimates	-7479
▁photo	-7480
▁Medical	-7481
▁Carol	-7482
▁binary	-7483
▁prolif	-7484
▁facilit	-7485
▁smart	-7486
▁Bus	-7487
adata	-7488
▁dynamics	-7489
▁sudden	-7490
dy	-7491
▁miles	-7492
▁trip	-7493
▁disput	-7494
▁accurate	-7495
▁protest	-7496
▁admitted	-7497
End	-7498
Response	-7499
▁discretion	-7500
▁IT	-7501
Handler	-7502
▁Africa	-7503
ilton	-7504
▁9,	-7505
ipping	-7506
▁messages	-7507
^2+	-7508
▁hole	-7509
uscript	-7510
▁Spe	-7511
▁spaces	-7512
▁¶	-7513
▁emission	-7514
++)	-7515
▁microsc	-7516
▁Louis	-7517
▁estate	-7518
}{2	-7519
BD	-7520
ket	-7521
_1$	-7522
▁54	-7523
asy	-7524
▁seeking	-7525
▁assistance	-7526
▁decades	-7527
Filter	-7528
▁11,	-7529
▁Ma	-7530
kins	-7531
scrib	-7532
/7	-7533
▁conj	-7534
urally	-7535
12,	-7536
▁Sl	-7537
osh	-7538
ERS	-7539
mas	-7540
▁sensitive	-7541
▁Times	-7542
chron	-7543
wing	-7544
EW	-7545
▁understood	-7546
▁apart	-7547
iral	-7548
herent	-7549
match	-7550
Ab	-7551
▁stem	-7552
▁esc	-7553
▁WAR	-7554
ading	-7555
rapeutic	-7556
▁spending	-7557
▁Interest	-7558
▁beat	-7559
war	-7560
▁mouth	-7561
=0.	-7562
▁filled	-7563
uum	-7564
▁ED	-7565
^{-1}	-7566
▁HT	-7567
▁negot	-7568
▁oxygen	-7569
▁horiz	-7570
}}{\	-7571
linear	-7572
Status	-7573
▁senior	-7574
▁Vol	-7575
adian	-7576
▁#:	-7577
▁consc	-7578
▁fluores	-7579
▁scan	-7580
▁consumption	-7581
▁̧	-7582
▁smallest	-7583
conf	-7584
▁Central	-7585
rip	-7586
▁secure	-7587
▁simpl	-7588
▁usual	-7589
▁2-	-7590
Label	-7591
▁pet	-7592
ifferent	-7593
▁Social	-7594
▁strategies	-7595
▁gender	-7596
▁1999	-7597
▁Que	-7598
then	-7599
ijms	-7600
▁abund	-7601
▁characterized	-7602
oly	-7603
^2\	-7604
▁0.2	-7605
yer	-7606
eding	-7607
▁objective	-7608
300	-7609
▁justice	-7610
agger	-7611
aked	-7612
▁~~~	-7613
▁100%	-7614
ontal	-7615
▁plastic	-7616
Exp	-7617
▁academ	-7618
ivered	-7619
PRO	-7620
-1.	-7621
▁Lemma	-7622
star	-7623
$)	-7624
▁favorite	-7625
▁Call	-7626
▁url	-7627
method	-7628
▁pages	-7629
perties	-7630
▁13.	-7631
▁union	-7632
▁recommended	-7633
▁predicted	-7634
irty	-7635
Me	-7636
▁intention	-7637
').	-7638
▁supports	-7639
▁pray	-7640
▁Elect	-7641
▁customer	-7642
3*	-7643
▁Earth	-7644
Layout	-7645
amber	-7646
▁distribut	-7647
▁bath	-7648
▁Color	-7649
▁Software	-7650
mut	-7651
▁supra	-7652
**5	-7653
cers	-7654
▁subset	-7655
▁tissues	-7656
▁Life	-7657
▁zone	-7658
▁arrange	-7659
▁ped	-7660
▁Star	-7661
▁hem	-7662
▁2006	-7663
▁EU	-7664
▁3-	-7665
▁manuscript	-7666
next	-7667
▁Care	-7668
orry	-7669
-01	-7670
▁sac	-7671
▁expensive	-7672
▁{}	-7673
bour	-7674
▁cart	-7675
▁exceed	-7676
ola	-7677
▁Additionally	-7678
prop	-7679
▁Fed	-7680
▁particle	-7681
▁SH	-7682
coin	-7683
▁Muslim	-7684
▁perman	-7685
NU	-7686
appe	-7687
▁Richard	-7688
▁fan	-7689
Start	-7690
▁Mer	-7691
▁reb	-7692
Page	-7693
▁channels	-7694
ander	-7695
▁broken	-7696
▁Gal	-7697
vol	-7698
▁girls	-7699
▁Click	-7700
^4	-7701
▁Chicago	-7702
▁Security	-7703
▁successfully	-7704
▁automatically	-7705
▁larg	-7706
Default	-7707
▁neurons	-7708
▁Clinton	-7709
▁William	-7710
▁(7	-7711
▁segment	-7712
▁LO	-7713
▁Exper	-7714
ogenic	-7715
uster	-7716
▁reducing	-7717
▁pH	-7718
▁television	-7719
▁Hospital	-7720
▁split	-7721
neg	-7722
▁Arab	-7723
▁causing	-7724
rition	-7725
icken	-7726
tab	-7727
[12	-7728
VA	-7729
▁chair	-7730
▁150	-7731
▁ton	-7732
▁installed	-7733
ocy	-7734
GA	-7735
▁Common	-7736
anta	-7737
▁launch	-7738
▁>>	-7739
▁targets	-7740
▁examination	-7741
kes	-7742
▁scientific	-7743
▁composite	-7744
ws	-7745
option	-7746
▁desc	-7747
-18	-7748
▁Among	-7749
▁Frank	-7750
▁baseline	-7751
▁transcript	-7752
▁pieces	-7753
▁orders	-7754
▁ship	-7755
▁*)	-7756
clear	-7757
▁McC	-7758
▁container	-7759
▁marriage	-7760
▁principle	-7761
▁],	-7762
request	-7763
▁compre	-7764
([	-7765
▁editor	-7766
▁-7	-7767
▁informed	-7768
olecules	-7769
osa	-7770
▁largely	-7771
▁corner	-7772
▁alt	-7773
▁Thank	-7774
acent	-7775
▁toler	-7776
seud	-7777
adow	-7778
**2.	-7779
▁authorities	-7780
▁scal	-7781
iki	-7782
▁accel	-7783
▁compact	-7784
▁warn	-7785
otted	-7786
▁Today	-7787
oral	-7788
▁sector	-7789
▁researchers	-7790
▁posted	-7791
media	-7792
▁Mont	-7793
control	-7794
▁crisis	-7795
▁asym	-7796
▁African	-7797
etch	-7798
SR	-7799
values	-7800
▁organic	-7801
▁sugar	-7802
▁supplement	-7803
▁promote	-7804
▁diabetes	-7805
▁epit	-7806
▁120	-7807
▁representative	-7808
101	-7809
▁Who	-7810
▁inhibition	-7811
iability	-7812
▁Return	-7813
2;	-7814
▁visible	-7815
▁14.	-7816
ASE	-7817
▁console	-7818
??	-7819
raction	-7820
gers	-7821
▁vess	-7822
▁Max	-7823
Load	-7824
tw	-7825
thm	-7826
▁facilities	-7827
▁register	-7828
.100	-7829
▁concerning	-7830
▁structural	-7831
▁tor	-7832
▁GO	-7833
effect	-7834
ady	-7835
ena	-7836
▁fell	-7837
case	-7838
▁proportion	-7839
▁subs	-7840
▁disorder	-7841
▁Look	-7842
▁ban	-7843
▁algebra	-7844
▁layers	-7845
▁amb	-7846
▁diagram	-7847
ogenesis	-7848
/-	-7849
▁strains	-7850
▁domin	-7851
▁replaced	-7852
split	-7853
TD	-7854
001){	-7855
▁joined	-7856
▁battle	-7857
life	-7858
▁Spring	-7859
▁"""	-7860
▁2019	-7861
MC	-7862
▁Francis	-7863
▁observation	-7864
▁determining	-7865
▁impossible	-7866
erated	-7867
▁Never	-7868
▁watching	-7869
SL	-7870
oxid	-7871
▁Control	-7872
▁veget	-7873
▁15,	-7874
▁divers	-7875
▁Based	-7876
▁rid	-7877
ulating	-7878
creen	-7879
find	-7880
▁sand	-7881
▁stret	-7882
▁solve	-7883
▁Date	-7884
END	-7885
EXT	-7886
oxy	-7887
▁embed	-7888
module	-7889
ez	-7890
▁minute	-7891
▁reson	-7892
vin	-7893
▁flag	-7894
▁reform	-7895
obj	-7896
▁directory	-7897
▁menu	-7898
▁si	-7899
▁candidates	-7900
oration	-7901
▁Cr	-7902
▁faster	-7903
▁Jones	-7904
▁neglig	-7905
▁sitting	-7906
iological	-7907
css	-7908
-69	-7909
▁xml	-7910
▁homes	-7911
%.	-7912
▁propag	-7913
▁assumed	-7914
-09	-7915
▁debate	-7916
imb	-7917
▁antibodies	-7918
▁adm	-7919
Web	-7920
▁differential	-7921
▁weekend	-7922
▁sweet	-7923
}},	-7924
gi	-7925
▁liability	-7926
▁vivo	-7927
▁(8	-7928
▁native	-7929
)?	-7930
▁Roy	-7931
▁guard	-7932
▁\{	-7933
mediate	-7934
▁wrt	-7935
▁behaviour	-7936
▁apopt	-7937
inite	-7938
water	-7939
▁prev	-7940
RT	-7941
▁alle	-7942
▁lowest	-7943
han	-7944
▁involves	-7945
(1,	-7946
▁Yet	-7947
▁Bet	-7948
▁putting	-7949
▁fre	-7950
Create	-7951
tag	-7952
▁hundreds	-7953
▁bott	-7954
▁passing	-7955
▁outer	-7956
▁herself	-7957
▁Home	-7958
▁explore	-7959
plant	-7960
fa	-7961
▁52	-7962
▁pairs	-7963
▁Fil	-7964
ounter	-7965
Per	-7966
gre	-7967
ubuntu	-7968
▁pip	-7969
Control	-7970
NAME	-7971
DP	-7972
▁matters	-7973
-000	-7974
▁executive	-7975
▁simult	-7976
*/	-7977
▁bind	-7978
▁merely	-7979
▁repair	-7980
Instance	-7981
google	-7982
ye	-7983
▁jour	-7984
▁Sk	-7985
▁RT	-7986
▁bio	-7987
▁emergency	-7988
▁proved	-7989
▁acting	-7990
▁bias	-7991
▁experiences	-7992
GC	-7993
oder	-7994
▁sea	-7995
▁seat	-7996
eness	-7997
▁Determ	-7998
▁ble	-7999
▁Jo	-8000
▁gate	-8001
fast	-8002
fonts	-8003
▁finish	-8004
▁closely	-8005
ampionship	-8006
aneously	-8007
▁primarily	-8008
high	-8009
▁principal	-8010
▁Maybe	-8011
▁delet	-8012
▁Fund	-8013
▁knock	-8014
▁monitoring	-8015
▁perspective	-8016
▁aid	-8017
eger	-8018
ameters	-8019
fections	-8020
eli	-8021
▁pump	-8022
▁shell	-8023
Off	-8024
ellar	-8025
▁instant	-8026
▁turns	-8027
▁Tim	-8028
▁Author	-8029
▁initially	-8030
▁grid	-8031
▁nom	-8032
▁Accordingly	-8033
▁Ver	-8034
▁inequ	-8035
8*	-8036
▁politics	-8037
aped	-8038
▁clar	-8039
▁innov	-8040
documentclass	-8041
▁injuries	-8042
▁depos	-8043
fit	-8044
▁operators	-8045
▁implemented	-8046
EF	-8047
▁arr	-8048
▁cities	-8049
)]	-8050
igr	-8051
▁dangerous	-8052
▁businesses	-8053
▁correspond	-8054
▁blocks	-8055
igan	-8056
ATA	-8057
▁Report	-8058
MB	-8059
,0	-8060
▁conversation	-8061
▁Text	-8062
lements	-8063
▁institution	-8064
▁maps	-8065
claim	-8066
▁Nat	-8067
▁assault	-8068
▁Medic	-8069
CU	-8070
▁Consider	-8071
vi	-8072
ZE	-8073
ortion	-8074
nut	-8075
▁sensor	-8076
ora	-8077
▁\*	-8078
}+	-8079
▁-\	-8080
▁contributions	-8081
3~	-8082
▁β	-8083
▁accordance	-8084
ivated	-8085
QU	-8086
▁Ms	-8087
▁significance	-8088
never	-8089
▁Camp	-8090
▁72	-8091
▁(0	-8092
rer	-8093
▁milk	-8094
▁familiar	-8095
minimal	-8096
}\,	-8097
▁Fire	-8098
▁obser	-8099
▁vul	-8100
▁Jose	-8101
True	-8102
▁trees	-8103
▁optimal	-8104
grade	-8105
▁lived	-8106
lik	-8107
▁disorders	-8108
▁injection	-8109
▁conviction	-8110
▁consists	-8111
▁Bit	-8112
▁delivered	-8113
omer	-8114
▁Current	-8115
oked	-8116
▁depart	-8117
▁Democratic	-8118
▁Value	-8119
▁2.0	-8120
▁Wal	-8121
▁terminal	-8122
-----	-8123
▁unsigned	-8124
▁leadership	-8125
avel	-8126
▁amazing	-8127
-17	-8128
odds	-8129
aks	-8130
▁locations	-8131
▁enhanced	-8132
▁walking	-8133
otten	-8134
osoph	-8135
▁argue	-8136
▁extend	-8137
▁Key	-8138
▁lots	-8139
strong	-8140
▁organizations	-8141
▁laser	-8142
▁opportunities	-8143
▁Virgin	-8144
▁à	-8145
▁fraud	-8146
▁instruction	-8147
▁195	-8148
5}	-8149
▁photos	-8150
▁(18	-8151
▁Microsoft	-8152
yles	-8153
▁correctly	-8154
common	-8155
hydro	-8156
▁electrical	-8157
▁Apple	-8158
▁Ñ	-8159
ERE	-8160
▁Image	-8161
avas	-8162
▁maintenance	-8163
▁95%	-8164
▁dollars	-8165
options	-8166
eds	-8167
▁minimal	-8168
▁denote	-8169
▁league	-8170
)))	-8171
▁facility	-8172
\"	-8173
GR	-8174
ressing	-8175
theless	-8176
▁ng	-8177
dep	-8178
)^{	-8179
iams	-8180
exec	-8181
▁thermal	-8182
born	-8183
▁grown	-8184
plex	-8185
&\	-8186
▁rub	-8187
▁illegal	-8188
root	-8189
nections	-8190
-15	-8191
▁rational	-8192
▁(4)	-8193
▁defe	-8194
▁accounts	-8195
▁vision	-8196
8_	-8197
▁internet	-8198
atrix	-8199
▁remark	-8200
She	-8201
▁closest	-8202
▁married	-8203
VD	-8204
Tem	-8205
quot	-8206
race	-8207
▁coc	-8208
▁7*	-8209
▁Lu	-8210
▁prohib	-8211
\]),	-8212
▁genome	-8213
3).	-8214
▁OS	-8215
ented	-8216
▁15.	-8217
Mode	-8218
▁eating	-8219
▁dream	-8220
▁remote	-8221
▁len	-8222
icate	-8223
▁removal	-8224
number	-8225
ums	-8226
andon	-8227
▁consequences	-8228
▁suspect	-8229
▁updated	-8230
▁figures	-8231
▁surrounding	-8232
rovers	-8233
▁prevalence	-8234
▁57	-8235
▁displayed	-8236
▁dual	-8237
▁flux	-8238
▁forget	-8239
▁Nav	-8240
▁syndrome	-8241
rics	-8242
▁pin	-8243
uzz	-8244
▁Introduction	-8245
▁closer	-8246
▁16,	-8247
▁bigger	-8248
▁pointed	-8249
idential	-8250
▁Peter	-8251
CIT	-8252
▁Aff	-8253
▁lie	-8254
▁Cup	-8255
▁Model	-8256
▁Play	-8257
▁submitted	-8258
matrix	-8259
▁fer	-8260
▁-10	-8261
0\	-8262
▁pathways	-8263
▁Development	-8264
Buffer	-8265
ski	-8266
▁integrated	-8267
▁Arch	-8268
RANT	-8269
▁provisions	-8270
▁methyl	-8271
ruption	-8272
▁rig	-8273
▁Haw	-8274
fill	-8275
▁wear	-8276
▁implied	-8277
▁creation	-8278
▁mutations	-8279
.2.	-8280
URL	-8281
6){	-8282
400	-8283
▁$3	-8284
weet	-8285
sche	-8286
▁clients	-8287
ether	-8288
▁pig	-8289
▁honest	-8290
▁Chief	-8291
-11	-8292
▁tro	-8293
▁intr	-8294
▁profession	-8295
▁1.5	-8296
DC	-8297
▁median	-8298
agen	-8299
▁fruit	-8300
▁arrived	-8301
▁preced	-8302
▁coupling	-8303
▁instrument	-8304
▁DC	-8305
▁Wall	-8306
▁spectra	-8307
▁schedul	-8308
▁bodies	-8309
▁apparently	-8310
rays	-8311
loc	-8312
▁coron	-8313
▁Tem	-8314
▁thoughts	-8315
▁loved	-8316
▁IR	-8317
orption	-8318
▁bacteria	-8319
▁pil	-8320
▁depression	-8321
------	-8322
▁stages	-8323
▁adopted	-8324
▁practical	-8325
▁metast	-8326
▁Hen	-8327
▁regression	-8328
author	-8329
▁copyright	-8330
pet	-8331
/6	-8332
▁recover	-8333
▁forg	-8334
▁Mel	-8335
▁Power	-8336
▁uncertain	-8337
▁grad	-8338
▁Make	-8339
achment	-8340
mo	-8341
liament	-8342
txt	-8343
ords	-8344
="#	-8345
▁Description	-8346
▁Lib	-8347
▁screening	-8348
▁constructed	-8349
▁topic	-8350
sup	-8351
show	-8352
aven	-8353
idents	-8354
IES	-8355
▁Mur	-8356
▁solar	-8357
▁Services	-8358
▁emotional	-8359
▁sports	-8360
irus	-8361
▁rail	-8362
▁Build	-8363
▁14,	-8364
▁gast	-8365
vider	-8366
▁})	-8367
lines	-8368
athered	-8369
▁describes	-8370
Format	-8371
▁counts	-8372
card	-8373
}^2	-8374
▁beam	-8375
upg	-8376
4]	-8377
▁ingred	-8378
Cell	-8379
▁tail	-8380
▁pp	-8381
▁Democrats	-8382
ICE	-8383
▁asc	-8384
▁argued	-8385
icular	-8386
▁amino	-8387
▁caught	-8388
ani	-8389
▁neighborhood	-8390
▁guidelines	-8391
})\	-8392
>,	-8393
▁committee	-8394
▁Corp	-8395
▁cas	-8396
▁2:	-8397
▁400	-8398
▁absolutely	-8399
▁essentially	-8400
ipl	-8401
▁Education	-8402
wer	-8403
▁[3	-8404
setlength	-8405
chain	-8406
▁============	-8407
▁synthesis	-8408
▁characteristic	-8409
project	-8410
▁pri	-8411
▁surve	-8412
▁sheet	-8413
pad	-8414
▁[1](#	-8415
reatment	-8416
▁laun	-8417
layer	-8418
▁Top	-8419
ifts	-8420
▁tasks	-8421
▁markets	-8422
ochond	-8423
▁enem	-8424
={	-8425
▁collabor	-8426
▁0.4	-8427
gress	-8428
▁bund	-8429
ipt	-8430
▁maintained	-8431
▁raw	-8432
Factory	-8433
▁0.05	-8434
sensors	-8435
ysym	-8436
stack	-8437
▁taxes	-8438
foot	-8439
▁classical	-8440
rank	-8441
▁$(\	-8442
TM	-8443
scr	-8444
-16	-8445
yg	-8446
ester	-8447
▁Po	-8448
▁manage	-8449
▁feedback	-8450
▁declared	-8451
▁lig	-8452
▁helping	-8453
▁categories	-8454
▁Tre	-8455
amsmath	-8456
OK	-8457
rivate	-8458
▁advoc	-8459
Builder	-8460
buf	-8461
riers	-8462
▁recording	-8463
▁episode	-8464
)|	-8465
arge	-8466
▁Labor	-8467
▁approval	-8468
▁assign	-8469
roups	-8470
called	-8471
▁theoret	-8472
▁spatial	-8473
mosp	-8474
DNA	-8475
▁telling	-8476
home	-8477
▁suc	-8478
▁tit	-8479
▁ultimately	-8480
Pe	-8481
▁cov	-8482
:2	-8483
▁worry	-8484
▁fabric	-8485
pdf	-8486
▁-12	-8487
STR	-8488
▁eigen	-8489
▁58	-8490
▁13,	-8491
▁regime	-8492
0"	-8493
▁posts	-8494
So	-8495
▁Administ	-8496
ssymb	-8497
anol	-8498
▁requested	-8499
▁modify	-8500
ensus	-8501
tx	-8502
/11	-8503
▁Director	-8504
ailability	-8505
description	-8506
▁Cath	-8507
amssymb	-8508
▁dogs	-8509
▁Du	-8510
LR	-8511
▁Similarly	-8512
avascript	-8513
▁Secretary	-8514
▁Nov	-8515
inet	-8516
Wh	-8517
acc	-8518
bsy	-8519
▁neck	-8520
▁Pan	-8521
▁pit	-8522
iatric	-8523
▁immediate	-8524
amsfonts	-8525
▁ske	-8526
▁offering	-8527
▁regulations	-8528
IND	-8529
_0$	-8530
Americ	-8531
▁meat	-8532
▁fashion	-8533
riter	-8534
▁initi	-8535
rsfs	-8536
mathrsfs	-8537
▁soil	-8538
▁wealth	-8539
amsbsy	-8540
upgreek	-8541
▁\-	-8542
idemargin	-8543
▁reporting	-8544
spring	-8545
▁preparation	-8546
sign	-8547
▁Donald	-8548
▁discovery	-8549
oddsidemargin	-8550
▁therapeutic	-8551
import	-8552
wasysym	-8553
▁encoding	-8554
▁classification	-8555
▁je	-8556
}/	-8557
▁prompt	-8558
▁Lee	-8559
▁luck	-8560
2).	-8561
etal	-8562
▁FA	-8563
▁subt	-8564
▁mic	-8565
▁chapter	-8566
▁evening	-8567
qquad	-8568
▁FROM	-8569
bling	-8570
gence	-8571
ader	-8572
ductor	-8573
▁identical	-8574
▁treatments	-8575
▁transformation	-8576
▁Again	-8577
▁####	-8578
ko	-8579
}-	-8580
▁sounds	-8581
_1\	-8582
▁Ir	-8583
outs	-8584
▁HE	-8585
erior	-8586
▁serving	-8587
}{-69	-8588
▁curves	-8589
▁explanation	-8590
.’	-8591
▁neutral	-8592
▁alloc	-8593
aren	-8594
▁hypothesis	-8595
hr	-8596
Fe	-8597
ttp	-8598
▁respective	-8599
har	-8600
▁incidence	-8601
▁2005	-8602
▁rotation	-8603
▁transaction	-8604
▁hal	-8605
▁surgical	-8606
▁53	-8607
Listener	-8608
ione	-8609
▁recognition	-8610
▁plain	-8611
▁examine	-8612
▁59	-8613
static	-8614
DO	-8615
isc	-8616
Pre	-8617
▁comprehens	-8618
▁coffe	-8619
▁od	-8620
ello	-8621
▁differ	-8622
friend	-8623
eper	-8624
▁illness	-8625
▁abstract	-8626
▁compliance	-8627
center	-8628
idity	-8629
▁speaking	-8630
▁Island	-8631
▁desire	-8632
isters	-8633
obe	-8634
▁User	-8635
="../../	-8636
▁CS	-8637
LECT	-8638
Check	-8639
▁-6	-8640
▁song	-8641
▁Dev	-8642
▁Line	-8643
▁aggreg	-8644
FIG	-8645
PI	-8646
si	-8647
▁α	-8648
isting	-8649
▁2004	-8650
mes	-8651
▁requests	-8652
▁purs	-8653
tml	-8654
)}\	-8655
▁Martin	-8656
▁contem	-8657
▁carcin	-8658
▁assets	-8659
▁possession	-8660
ffered	-8661
▁totally	-8662
▁tumors	-8663
rb	-8664
▁enforcement	-8665
BM	-8666
▁mask	-8667
rolled	-8668
▁Williams	-8669
15,	-8670
neq	-8671
▁Start	-8672
▁sho	-8673
1\	-8674
▁gau	-8675
▁fellow	-8676
▁principles	-8677
▁"[	-8678
pers	-8679
PCR	-8680
▁ruling	-8681
▁finds	-8682
▁ment	-8683
~3~	-8684
▁Road	-8685
▁controvers	-8686
erves	-8687
▁climate	-8688
▁kne	-8689
▁Oper	-8690
▁Wood	-8691
▁situations	-8692
/(-	-8693
▁tells	-8694
▁ven	-8695
attice	-8696
▁Following	-8697
ogram	-8698
▁boolean	-8699
][	-8700
odium	-8701
▁Init	-8702
▁Corpor	-8703
▁Mount	-8704
▁kick	-8705
▁Ze	-8706
▁mail	-8707
▁sustain	-8708
mL	-8709
▁obviously	-8710
asive	-8711
cussion	-8712
▁presum	-8713
otypes	-8714
▁crypt	-8715
▁spoke	-8716
▁Game	-8717
}|	-8718
▁Const	-8719
Attribute	-8720
uable	-8721
iner	-8722
eller	-8723
+1)	-8724
▁(9	-8725
▁nurs	-8726
▁contents	-8727
ao	-8728
ACE	-8729
iser	-8730
▁bars	-8731
:(	-8732
grad	-8733
▁"\	-8734
▁Li	-8735
▁-1.	-8736
{1}{2	-8737
uint	-8738
▁furn	-8739
Options	-8740
▁rect	-8741
onym	-8742
Resource	-8743
UP	-8744
▁Attorney	-8745
▁2](#	-8746
▁loan	-8747
▁Society	-8748
float	-8749
▁crucial	-8750
▁youth	-8751
▁helpful	-8752
▁somewhat	-8753
ORE	-8754
▁trouble	-8755
empty	-8756
ARE	-8757
▁preferred	-8758
uns	-8759
▁controller	-8760
▁20,	-8761
.-	-8762
Style	-8763
▁rend	-8764
Function	-8765
\*\*	-8766
Back	-8767
▁Hamilton	-8768
utory	-8769
expected	-8770
▁taste	-8771
▁align	-8772
]$	-8773
▁BE	-8774
▁drawn	-8775
bered	-8776
▁00:	-8777
vector	-8778
omatic	-8779
graph	-8780
▁quiet	-8781
▁scr	-8782
▁shooting	-8783
Token	-8784
▁applying	-8785
▁Sol	-8786
▁realize	-8787
^{2}	-8788
▁ath	-8789
002){	-8790
▁Chapter	-8791
Gl	-8792
xiety	-8793
▁lies	-8794
ads	-8795
Command	-8796
▁glucose	-8797
Length	-8798
▁worst	-8799
.4	-8800
▁arrested	-8801
▁vertical	-8802
Hz	-8803
▁kitchen	-8804
▁voters	-8805
▁5-	-8806
▁thr	-8807
▁teaching	-8808
▁Best	-8809
teen	-8810
▁tube	-8811
▁é	-8812
▁Ig	-8813
CN	-8814
▁manip	-8815
▁deaths	-8816
▁pulled	-8817
▁enzyme	-8818
>&	-8819
▁substantially	-8820
▁header	-8821
▁biom	-8822
▁Version	-8823
-08	-8824
▁driven	-8825
{1}	-8826
Dec	-8827
▁normally	-8828
▁infected	-8829
▁spectral	-8830
▁cognitive	-8831
▁Ari	-8832
▁PS	-8833
▁cohort	-8834
▁coffee	-8835
VE	-8836
▁Pak	-8837
2:	-8838
▁Food	-8839
▁king	-8840
▁picking	-8841
▁tom	-8842
header	-8843
isor	-8844
▁Organ	-8845
Ret	-8846
rh	-8847
▁fiber	-8848
010	-8849
▁Ama	-8850
aded	-8851
▁Analysis	-8852
rium	-8853
▁centre	-8854
▁registered	-8855
▁permission	-8856
▁Journal	-8857
BR	-8858
▁Book	-8859
DM	-8860
They	-8861
▁roles	-8862
▁hidden	-8863
0.5	-8864
▁peripher	-8865
▁constitutional	-8866
▁overl	-8867
▁planet	-8868
]^.	-8869
▁division	-8870
ching	-8871
▁trigger	-8872
iana	-8873
▁mechanical	-8874
▁GNU	-8875
icing	-8876
essions	-8877
▁bought	-8878
scill	-8879
▁proliferation	-8880
▁PT	-8881
Gen	-8882
▁intelligence	-8883
▁permit	-8884
▁Sort	-8885
▁Error	-8886
▁occasion	-8887
▁carrying	-8888
▁WARRANT	-8889
dx	-8890
anner	-8891
▁county	-8892
▁BO	-8893
1),	-8894
▁embod	-8895
▁infections	-8896
▁patent	-8897
▁metric	-8898
▁reads	-8899
▁ma	-8900
icide	-8901
▁conversion	-8902
mode	-8903
▁1000	-8904
▁acids	-8905
▁consumer	-8906
untime	-8907
▁Trust	-8908
enter	-8909
▁1-	-8910
▁assumption	-8911
rolog	-8912
▁attempts	-8913
▁grade	-8914
Component	-8915
▁..	-8916
▁calc	-8917
azine	-8918
▁noticed	-8919
▁documentation	-8920
▁{{	-8921
▁cultural	-8922
sen	-8923
cb	-8924
▁diameter	-8925
▁66	-8926
▁powers	-8927
▁0.8	-8928
▁chart	-8929
nger	-8930
▁accused	-8931
4*	-8932
ishment	-8933
▁orth	-8934
▁Op	-8935
▁radius	-8936
]--[@	-8937
cribed	-8938
▁Cam	-8939
▁experts	-8940
▁Atl	-8941
mann	-8942
▁Division	-8943
attr	-8944
Block	-8945
rastructure	-8946
▁separated	-8947
▁atmosp	-8948
oids	-8949
▁realized	-8950
▁hybrid	-8951
▁weapons	-8952
▁legislation	-8953
▁logic	-8954
prot	-8955
align	-8956
▁Grand	-8957
emia	-8958
▁Total	-8959
▁opposition	-8960
▁Round	-8961
25,	-8962
▁Case	-8963
sn	-8964
▁Right	-8965
▁incred	-8966
▁millions	-8967
▁gro	-8968
▁setup	-8969
udd	-8970
▁purchased	-8971
▁disag	-8972
▁30,	-8973
▁tip	-8974
▁hall	-8975
▁exit	-8976
▁YO	-8977
▁mine	-8978
▁hero	-8979
▁institutions	-8980
erman	-8981
quare	-8982
▁correlated	-8983
ariable	-8984
.**	-8985
▁fighting	-8986
▁>=	-8987
▁NY	-8988
▁Academ	-8989
service	-8990
▁URL	-8991
▁reactions	-8992
▁Source	-8993
DD	-8994
▁Card	-8995
▁prejud	-8996
▁pictures	-8997
▁alpha	-8998
▁university	-8999
▁fee	-9000
▁vide	-9001
▁affirm	-9002
▁Land	-9003
▁simulation	-9004
Select	-9005
▁sizes	-9006
xp	-9007
.1	-9008
close	-9009
Equal	-9010
▁paying	-9011
▁MO	-9012
click	-9013
=0$	-9014
▁Several	-9015
jpg	-9016
Output	-9017
▁browser	-9018
▁substance	-9019
ynomial	-9020
▁0.3	-9021
▁crystal	-9022
mathsf	-9023
▁radi	-9024
uting	-9025
▁Lo	-9026
▁weather	-9027
▁superior	-9028
inition	-9029
▁Korea	-9030
pay	-9031
▁Ro	-9032
▁medicine	-9033
▁transferred	-9034
▁planned	-9035
nat	-9036
▁increasingly	-9037
▁excited	-9038
▁entity	-9039
▁Jeff	-9040
▁Ohio	-9041
▁Mexico	-9042
16,	-9043
▁sharing	-9044
molecules	-9045
Max	-9046
▁owned	-9047
▁ourselves	-9048
▁password	-9049
▁mir	-9050
ULT	-9051
▁Material	-9052
▁domestic	-9053
▁forming	-9054
▁override	-9055
▁MI	-9056
fortunately	-9057
▁pursuant	-9058
▁rein	-9059
▁originally	-9060
▁Run	-9061
▁viral	-9062
▁dropped	-9063
▁Water	-9064
Rev	-9065
▁corporate	-9066
▁payments	-9067
approx	-9068
(0)	-9069
'$	-9070
▁religion	-9071
buffer	-9072
▁compat	-9073
endar	-9074
▁reliable	-9075
▁Los	-9076
▁rapidly	-9077
▁inqu	-9078
▁95	-9079
▁miR	-9080
▁listen	-9081
▁clock	-9082
▁3)	-9083
▁Special	-9084
Oper	-9085
▁integral	-9086
▁compensation	-9087
▁reviewed	-9088
▁conscious	-9089
▁boost	-9090
▁retrie	-9091
Width	-9092
Configuration	-9093
-$	-9094
▁por	-9095
▁acquired	-9096
oston	-9097
inical	-9098
▁columns	-9099
▁addressed	-9100
▁extensive	-9101
esides	-9102
filter	-9103
▁Create	-9104
types	-9105
rif	-9106
################	-9107
▁shel	-9108
=1,	-9109
▁Profess	-9110
▁Lake	-9111
▁Republicans	-9112
TYPE	-9113
▁battery	-9114
▁introduce	-9115
▁194	-9116
▁fant	-9117
)^2	-9118
bottom	-9119
ventions	-9120
itudes	-9121
▁knowing	-9122
▁delete	-9123
4/	-9124
▁Mrs	-9125
▁Bal	-9126
▁feat	-9127
▁imagine	-9128
▁Eth	-9129
mi	-9130
HC	-9131
▁fle	-9132
▁sick	-9133
▁victims	-9134
aration	-9135
▁complicated	-9136
terday	-9137
▁),	-9138
Row	-9139
▁radical	-9140
▁theorem	-9141
128	-9142
▁Canadian	-9143
▁Virginia	-9144
DI	-9145
▁nic	-9146
))/(	-9147
▁dust	-9148
▁mes	-9149
month	-9150
aph	-9151
haust	-9152
▁thor	-9153
▁Sa	-9154
▁integration	-9155
▁authent	-9156
Part	-9157
▁evident	-9158
▁regulatory	-9159
▁Bu	-9160
▁Local	-9161
▁Appeals	-9162
▁statistics	-9163
▁tort	-9164
▁oscill	-9165
kt	-9166
obby	-9167
1/2	-9168
▁slowly	-9169
▁cars	-9170
▁68	-9171
agraph	-9172
▁answers	-9173
▁wherein	-9174
Arg	-9175
▁momentum	-9176
ologic	-9177
▁67	-9178
▁::	-9179
▁beta	-9180
▁Constitution	-9181
▁inflammatory	-9182
▁:)	-9183
▁industrial	-9184
▁fairly	-9185
▁happening	-9186
▁Jul	-9187
▁presentation	-9188
▁risks	-9189
▁serial	-9190
▁retail	-9191
▁participate	-9192
GT	-9193
contin	-9194
▁publication	-9195
▁mitochond	-9196
▁fails	-9197
push	-9198
=2	-9199
ão	-9200
▁Network	-9201
1-\	-9202
▁===	-9203
:201	-9204
▁meth	-9205
OH	-9206
▁regardless	-9207
▁recognize	-9208
▁Real	-9209
▁induction	-9210
▁warning	-9211
▁Invest	-9212
-14	-9213
▁probe	-9214
▁clusters	-9215
▁99	-9216
▁-1,	-9217
▁winning	-9218
▁-13	-9219
▁wra	-9220
▁aver	-9221
orne	-9222
▁Jim	-9223
bles	-9224
(_	-9225
attering	-9226
west	-9227
▁bug	-9228
▁mob	-9229
fficients	-9230
001	-9231
▁alk	-9232
▁adverse	-9233
▁temperatures	-9234
▁proceedings	-9235
▁Women	-9236
prote	-9237
GET	-9238
lymp	-9239
▁feels	-9240
ruptcy	-9241
▁Jackson	-9242
uma	-9243
ropy	-9244
▁windows	-9245
axis	-9246
AF	-9247
▁kinds	-9248
▁audience	-9249
▁vehicles	-9250
▁restaurant	-9251
▁instruct	-9252
Const	-9253
▁stead	-9254
▁twenty	-9255
▁goods	-9256
▁Georg	-9257
▁edges	-9258
-------	-9259
▁Mike	-9260
zy	-9261
▁Daniel	-9262
▁manifest	-9263
VAL	-9264
▁0$	-9265
▁coal	-9266
01,	-9267
inson	-9268
"}),	-9269
▁subsequently	-9270
ificate	-9271
▁calculate	-9272
burg	-9273
ATH	-9274
orig	-9275
▁simulations	-9276
▁surfaces	-9277
▁cab	-9278
ja	-9279
element	-9280
▁wine	-9281
▁hydrogen	-9282
▁degrad	-9283
astern	-9284
▁bin	-9285
▁Array	-9286
iture	-9287
Ste	-9288
▁engaged	-9289
rames	-9290
▁employer	-9291
▁coupled	-9292
front	-9293
amely	-9294
sequently	-9295
15.	-9296
ighter	-9297
column	-9298
▁brown	-9299
fix	-9300
irable	-9301
▁-11	-9302
}}^	-9303
▁hell	-9304
▁attempted	-9305
▁$|	-9306
▁writer	-9307
Link	-9308
▁41	-9309
▁suffered	-9310
▁operate	-9311
▁hate	-9312
▁Ter	-9313
▁circul	-9314
▁stores	-9315
▁laboratory	-9316
dist	-9317
GS	-9318
▁calculation	-9319
▁0.9	-9320
▁choices	-9321
▁capture	-9322
▁scenario	-9323
▁veter	-9324
▁separation	-9325
▁Jewish	-9326
▁blow	-9327
Char	-9328
5]	-9329
Rem	-9330
▁producing	-9331
▁banks	-9332
▁Order	-9333
system	-9334
Tab	-9335
HL	-9336
▁110	-9337
▁Bush	-9338
▁cro	-9339
Vis	-9340
▁wound	-9341
▁renew	-9342
▁discharge	-9343
▁Amendment	-9344
▁[^	-9345
▁buildings	-9346
▁fo	-9347
Window	-9348
▁colors	-9349
▁flo	-9350
▁refused	-9351
deg	-9352
▁comfortable	-9353
-03	-9354
agnetic	-9355
▁younger	-9356
update	-9357
ben	-9358
second	-9359
▁shop	-9360
▁lift	-9361
Click	-9362
▁aside	-9363
▁Blue	-9364
▁acknowled	-9365
ycl	-9366
regulated	-9367
ospit	-9368
ala	-9369
▁Charles	-9370
▁dependence	-9371
▁Requ	-9372
▁accommod	-9373
▁versions	-9374
▁corresponds	-9375
▁contributed	-9376
▁resc	-9377
ibilities	-9378
mult	-9379
▁inhibitor	-9380
▁vast	-9381
▁throws	-9382
pert	-9383
minus	-9384
▁Whether	-9385
▁SC	-9386
▁-14	-9387
~~~~	-9388
▁verdict	-9389
▁attribute	-9390
response	-9391
▁decade	-9392
▁boot	-9393
]\	-9394
msg	-9395
Null	-9396
spe	-9397
▁bare	-9398
▁schedule	-9399
▁Team	-9400
▁mapping	-9401
▁Carolina	-9402
agues	-9403
inals	-9404
/9	-9405
▁apoptosis	-9406
▁representing	-9407
▁Determine	-9408
actic	-9409
step	-9410
▁suffering	-9411
▁arbitrary	-9412
vals	-9413
VID	-9414
▁iter	-9415
Dev	-9416
▁disappe	-9417
▁elig	-9418
};	-9419
▁turning	-9420
▁hurt	-9421
One	-9422
isely	-9423
ema	-9424
▁Pakistan	-9425
▁Ram	-9426
▁proposal	-9427
When	-9428
▁stood	-9429
▁grounds	-9430
▁odd	-9431
▁basically	-9432
power	-9433
▁hotel	-9434
_1,\	-9435
▁perm	-9436
▁rows	-9437
▁walls	-9438
▁gift	-9439
▁receptors	-9440
offset	-9441
▁colle	-9442
chem	-9443
▁alert	-9444
600	-9445
▁smoking	-9446
▁applies	-9447
▁facing	-9448
buntu	-9449
▁п	-9450
asts	-9451
▁polym	-9452
▁consumers	-9453
▁Take	-9454
▁spokes	-9455
IGHT	-9456
▁involvement	-9457
rin	-9458
▁coefficient	-9459
▁escape	-9460
▁electrode	-9461
▁progression	-9462
▁ans	-9463
▁Vict	-9464
▁prepare	-9465
▁promise	-9466
▁extreme	-9467
▁Old	-9468
shot	-9469
▁performing	-9470
▁regional	-9471
%),	-9472
▁Hot	-9473
▁modes	-9474
▁agencies	-9475
▁thickness	-9476
^,	-9477
▁18,	-9478
▁inflammation	-9479
nic	-9480
▁encourage	-9481
▁62	-9482
Hel	-9483
▁Unfortunately	-9484
▁strike	-9485
=(	-9486
▁1/2	-9487
▁Business	-9488
120	-9489
────	-9490
HECK	-9491
amination	-9492
▁Enter	-9493
names	-9494
▁discover	-9495
▁periods	-9496
▁minister	-9497
▁opposed	-9498
▁sister	-9499
▁yellow	-9500
▁chamber	-9501
▁anyway	-9502
▁remind	-9503
▁contrary	-9504
▁famous	-9505
▁newsp	-9506
ifer	-9507
▁adjacent	-9508
▁vulner	-9509
▁equally	-9510
▁Cast	-9511
▁lens	-9512
▁stimulation	-9513
▁diversity	-9514
Tex	-9515
Ident	-9516
▁privile	-9517
▁flight	-9518
▁Pac	-9519
▁fault	-9520
▁observe	-9521
▁denomin	-9522
rey	-9523
terior	-9524
▁pregnancy	-9525
scri	-9526
▁reader	-9527
▁plenty	-9528
▁decline	-9529
Thread	-9530
▁Comput	-9531
elly	-9532
ynt	-9533
▁creates	-9534
sur	-9535
razil	-9536
▁cooper	-9537
▁satisfied	-9538
▁magnitude	-9539
▁thereof	-9540
▁coefficients	-9541
▁Boston	-9542
▁shares	-9543
▁respir	-9544
dl	-9545
▁bacterial	-9546
▁dimensions	-9547
▁killing	-9548
▁decreasing	-9549
▁beer	-9550
zero	-9551
▁volunte	-9552
La	-9553
ilib	-9554
noon	-9555
▁Page	-9556
▁0.7	-9557
cpp	-9558
▁Number	-9559
▁winter	-9560
▁permanent	-9561
/10	-9562
▁profiles	-9563
▁requiring	-9564
▁PO	-9565
:30	-9566
▁excluded	-9567
▁ongoing	-9568
||	-9569
▁conform	-9570
▁Methods	-9571
▁Palest	-9572
Ge	-9573
▁keys	-9574
▁semicon	-9575
positive	-9576
EP	-9577
How	-9578
ictionary	-9579
▁statistically	-9580
▁moves	-9581
elihood	-9582
▁walked	-9583
mathscr	-9584
▁polynomial	-9585
▁manufacturing	-9586
13,	-9587
▁reconst	-9588
rible	-9589
4).	-9590
▁nod	-9591
rosc	-9592
▁moderate	-9593
direct	-9594
▁village	-9595
uid	-9596
▁=======	-9597
▁HTML	-9598
roud	-9599
Init	-9600
vm	-9601
API	-9602
▁Jon	-9603
alloc	-9604
▁inval	-9605
_2,	-9606
uate	-9607
▁wonderful	-9608
HA	-9609
***	-9610
▁Lab	-9611
aria	-9612
▁island	-9613
▁sad	-9614
▁Support	-9615
▁newly	-9616
▁symmetry	-9617
▁Collect	-9618
ENSE	-9619
▁markers	-9620
007	-9621
annot	-9622
▁philosoph	-9623
▁Club	-9624
▁History	-9625
"}](	-9626
▁connections	-9627
▁63	-9628
▁migration	-9629
▁Down	-9630
allow	-9631
▁fort	-9632
NET	-9633
▁anxiety	-9634
▁begins	-9635
foo	-9636
▁cond	-9637
▁tough	-9638
▁adequate	-9639
▁hypert	-9640
▁Though	-9641
▁repeat	-9642
▁́	-9643
▁intermediate	-9644
▁fro	-9645
▁extracted	-9646
▁Sar	-9647
▁$5	-9648
▁teachers	-9649
}})	-9650
▁semi	-9651
Te	-9652
Server	-9653
▁foods	-9654
GP	-9655
▁complications	-9656
-04	-9657
▁stronger	-9658
▁sever	-9659
pool	-9660
sing	-9661
▁cytok	-9662
rices	-9663
Process	-9664
▁appell	-9665
BB	-9666
▁circle	-9667
▁efficacy	-9668
▁ren	-9669
rients	-9670
rivial	-9671
river	-9672
▁Est	-9673
▁forest	-9674
▁crack	-9675
estinal	-9676
▁consequence	-9677
▁kernel	-9678
▁allegations	-9679
▁Conf	-9680
inois	-9681
▁computed	-9682
▁usage	-9683
▁Function	-9684
▁suscept	-9685
iology	-9686
▁fragment	-9687
▁Rest	-9688
osome	-9689
▁na	-9690
▁sport	-9691
▁stands	-9692
▁mutant	-9693
▁17,	-9694
uity	-9695
Target	-9696
▁victory	-9697
▁targeted	-9698
ellee	-9699
▁diagnostic	-9700
▁habit	-9701
▁exhaust	-9702
]]	-9703
10,	-9704
▁Chris	-9705
▁Base	-9706
▁obst	-9707
appoint	-9708
▁reserved	-9709
III	-9710
▁lesions	-9711
▁injured	-9712
▁territ	-9713
▁wal	-9714
(*	-9715
▁Pers	-9716
▁token	-9717
▁explo	-9718
▁10%	-9719
▁Rom	-9720
agers	-9721
ECT	-9722
gage	-9723
sv	-9724
),\	-9725
▁Rock	-9726
▁Bow	-9727
▁belief	-9728
▁Army	-9729
ogeneous	-9730
Header	-9731
▁Hon	-9732
▁obj	-9733
▁Still	-9734
▁bringing	-9735
ussian	-9736
▁emphas	-9737
▁bear	-9738
>0	-9739
2(	-9740
▁robust	-9741
▁selling	-9742
16.	-9743
▁calculations	-9744
clip	-9745
ocracy	-9746
▁mutation	-9747
ffff	-9748
▁succeed	-9749
▁Ent	-9750
▁Show	-9751
gal	-9752
▁theme	-9753
vas	-9754
▁bytes	-9755
▁<=	-9756
env	-9757
▁Ell	-9758
▁decay	-9759
▁dealing	-9760
▁assist	-9761
enger	-9762
▁Hand	-9763
▁technologies	-9764
pop	-9765
Can	-9766
▁ster	-9767
▁Brad	-9768
▁Media	-9769
▁trained	-9770
otox	-9771
▁summar	-9772
▁statutory	-9773
lie	-9774
---------	-9775
▁Did	-9776
bel	-9777
0.01	-9778
▁surprising	-9779
▁tab	-9780
note	-9781
▁ec	-9782
▁Effect	-9783
▁Town	-9784
▁saved	-9785
▁17.	-9786
ima	-9787
▁teach	-9788
▁Ha	-9789
▁bits	-9790
infl	-9791
efined	-9792
▁acet	-9793
▁<-	-9794
▁galaxies	-9795
▁announce	-9796
-13	-9797
▁missed	-9798
ilation	-9799
}\\	-9800
▁Point	-9801
plan	-9802
▁revenue	-9803
▁reviews	-9804
▁withdraw	-9805
you	-9806
▁moments	-9807
HR	-9808
enth	-9809
▁activated	-9810
hab	-9811
▁RO	-9812
▁displ	-9813
▁instances	-9814
▁fly	-9815
▁losing	-9816
▁cardiac	-9817
:5	-9818
▁distributions	-9819
▁elected	-9820
▁rely	-9821
:3	-9822
▁77	-9823
Reference	-9824
▁matches	-9825
useum	-9826
rick	-9827
▁dedicated	-9828
▁satisfy	-9829
ILITY	-9830
▁85	-9831
-02	-9832
ircraft	-9833
▁chlor	-9834
▁renal	-9835
▁correction	-9836
▁Jac	-9837
▁69	-9838
▁Have	-9839
▁Custom	-9840
apes	-9841
▁lattice	-9842
limits	-9843
▁<?	-9844
ji	-9845
▁differentiation	-9846
;&	-9847
▁contends	-9848
onia	-9849
▁aged	-9850
▁Expand	-9851
▁SQL	-9852
Su	-9853
▁faces	-9854
▁Product	-9855
rage	-9856
▁dataset	-9857
nn	-9858
▁rib	-9859
▁classified	-9860
▁Main	-9861
▁brings	-9862
▁disturb	-9863
▁HR	-9864
awa	-9865
▁Event	-9866
▁translation	-9867
▁}\	-9868
▁Through	-9869
▁Low	-9870
▁Australian	-9871
▁glut	-9872
▁db	-9873
▁phosphory	-9874
▁embry	-9875
▁Application	-9876
▁diagnosed	-9877
▁dialog	-9878
▁fed	-9879
▁historical	-9880
▁meta	-9881
▁quad	-9882
6}	-9883
ifact	-9884
▁plur	-9885
▁orb	-9886
6/	-9887
▁Prov	-9888
▁universe	-9889
▁ol	-9890
▁**(	-9891
▁hur	-9892
▁8*	-9893
▁tou	-9894
▁Fox	-9895
▁apartment	-9896
}}^{	-9897
▁checked	-9898
▁cutting	-9899
files	-9900
mean	-9901
▁imposed	-9902
▁Kn	-9903
▁incubated	-9904
14.	-9905
▁launched	-9906
yes	-9907
uh	-9908
▁coast	-9909
ometimes	-9910
Address	-9911
▁infrastructure	-9912
▁execution	-9913
▁Sher	-9914
obs	-9915
17,	-9916
PM	-9917
▁metabolic	-9918
▁cache	-9919
▁NA	-9920
▁Chem	-9921
▁Britain	-9922
ocard	-9923
points	-9924
ansas	-9925
▁Global	-9926
▁gauge	-9927
▁Try	-9928
▁chose	-9929
avelength	-9930
▁pseud	-9931
▁rounded	-9932
▁academic	-9933
cert	-9934
▁Joe	-9935
▁prediction	-9936
▁Coll	-9937
▁NC	-9938
▁hardware	-9939
▁presents	-9940
▁chicken	-9941
SY	-9942
▁sufficiently	-9943
▁dinner	-9944
▁Light	-9945
▁ordinary	-9946
RNAs	-9947
▁Technology	-9948
▁Year	-9949
Child	-9950
▁sight	-9951
▁absorb	-9952
▁snow	-9953
likely	-9954
▁educational	-9955
ni	-9956
▁theoretical	-9957
▁truck	-9958
▁\|	-9959
▁boys	-9960
▁cloud	-9961
icul	-9962
▁valuable	-9963
▁50%	-9964
▁references	-9965
▁Energy	-9966
▁disclosed	-9967
HD	-9968
Met	-9969
replace	-9970
▁gather	-9971
cus	-9972
▁Cur	-9973
-11-	-9974
▁++	-9975
13.	-9976
▁Christmas	-9977
▁Patients	-9978
./	-9979
Do	-9980
▁25,	-9981
▁span	-9982
▁seriously	-9983
zo	-9984
14,	-9985
Column	-9986
▁125	-9987
umes	-9988
▁perfectly	-9989
▁Paris	-9990
▁urban	-9991
▁Illinois	-9992
ureau	-9993
▁carrier	-9994
iations	-9995
)$$	-9996
▁-9	-9997
public	-9998
▁loaded	-9999
UC	-10000
unicip	-10001
▁staining	-10002
▁yields	-10003
▁Amazon	-10004
▁wearing	-10005
reement	-10006
Ne	-10007
▁carefully	-10008
AK	-10009
▁dict	-10010
ierarch	-10011
▁omitted	-10012
▁partially	-10013
▁Kim	-10014
▁Angeles	-10015
).$$	-10016
▁admission	-10017
oxide	-10018
▁tack	-10019
.^[@	-10020
▁resolve	-10021
▁god	-10022
ila	-10023
▁args	-10024
ARY	-10025
ultural	-10026
▁cards	-10027
▁domains	-10028
aved	-10029
▁OK	-10030
11.	-10031
▁$\{	-10032
▁insulin	-10033
0000000000000000	-10034
▁External	-10035
plus	-10036
isons	-10037
▁controlling	-10038
▁conservative	-10039
bro	-10040
▁metabolism	-10041
ted	-10042
▁Bern	-10043
▁numerical	-10044
▁inline	-10045
▁Brazil	-10046
▁Civil	-10047
▁24,	-10048
▁mild	-10049
▁Michigan	-10050
▁Middle	-10051
▁bench	-10052
▁Additional	-10053
}^\	-10054
▁Bra	-10055
▁abnormal	-10056
▁comparable	-10057
▁intake	-10058
DIR	-10059
bul	-10060
▁chest	-10061
▁complexity	-10062
PV	-10063
▁MD	-10064
▁declare	-10065
}_\	-10066
▁Corporation	-10067
▁une	-10068
Open	-10069
aws	-10070
▁constraints	-10071
]{}]{}	-10072
olester	-10073
asi	-10074
▁tradition	-10075
}({\	-10076
▁stabil	-10077
▁engage	-10078
▁routine	-10079
copy	-10080
▁(11	-10081
▁comprehensive	-10082
CV	-10083
▁bridge	-10084
▁adhes	-10085
ghan	-10086
▁neu	-10087
thread	-10088
▁cream	-10089
ican	-10090
▁tens	-10091
}.$$	-10092
▁discrimination	-10093
1⁄4	-10094
ariju	-10095
▁Cook	-10096
▁surprise	-10097
▁[2](#	-10098
▁breaking	-10099
irms	-10100
▁gall	-10101
aft	-10102
1%	-10103
▁stroke	-10104
▁Columb	-10105
▁BY	-10106
textbf	-10107
▁induce	-10108
▁Far	-10109
arijuana	-10110
▁Kar	-10111
▁behalf	-10112
▁sed	-10113
▁0.6	-10114
▁inclusion	-10115
gly	-10116
▁contrad	-10117
umps	-10118
▁serves	-10119
▁2020	-10120
▁marketing	-10121
^0	-10122
menu	-10123
▁Perhaps	-10124
▁bran	-10125
▁challenging	-10126
▁Olymp	-10127
forward	-10128
▁provider	-10129
▁reveal	-10130
▁Map	-10131
▁Young	-10132
ovascular	-10133
▁78	-10134
Spec	-10135
▁divide	-10136
▁250	-10137
▁sampling	-10138
▁pour	-10139
NC	-10140
▁insu	-10141
▁copies	-10142
leep	-10143
mediated	-10144
▁cited	-10145
:4	-10146
▁denominator	-10147
▁introduction	-10148
▁convin	-10149
osity	-10150
▁handling	-10151
▁anywhere	-10152
▁consec	-10153
▁(-2	-10154
aylor	-10155
▁thousand	-10156
ras	-10157
▁sou	-10158
=1}^	-10159
▁Span	-10160
uality	-10161
▁Turn	-10162
conomic	-10163
duction	-10164
▁plug	-10165
Det	-10166
▁=\	-10167
▁believes	-10168
Write	-10169
▁simultaneously	-10170
device	-10171
▁responded	-10172
▁butter	-10173
^[	-10174
▁21,	-10175
▁Six	-10176
monary	-10177
▁journey	-10178
▁retire	-10179
▁sear	-10180
▁west	-10181
▁explicitly	-10182
oprote	-10183
▁intel	-10184
▁cav	-10185
▁steel	-10186
▁Italy	-10187
'),	-10188
▁decom	-10189
▁sau	-10190
▁penalty	-10191
uction	-10192
▁afternoon	-10193
▁icon	-10194
▁anticip	-10195
▁Cross	-10196
---|---|---|---|	-10197
▁Prime	-10198
▁laugh	-10199
▁Uk	-10200
▁finger	-10201
▁gel	-10202
▁fluct	-10203
conduct	-10204
▁profit	-10205
isk	-10206
▁healthcare	-10207
150	-10208
Mon	-10209
associ	-10210
▁shouldn	-10211
▁horm	-10212
▁unus	-10213
report	-10214
▁dress	-10215
""	-10216
[[@	-10217
)+	-10218
bial	-10219
▁amplitude	-10220
▁bil	-10221
▁variations	-10222
003){	-10223
▁quantity	-10224
▁improving	-10225
▁bat	-10226
▁greatly	-10227
PAR	-10228
ogg	-10229
uct	-10230
▁drinking	-10231
▁universal	-10232
▁Si	-10233
Gener	-10234
greg	-10235
▁doct	-10236
example	-10237
older	-10238
▁holid	-10239
▁approximation	-10240
▁Action	-10241
isition	-10242
Project	-10243
prod	-10244
ocyte	-10245
asty	-10246
▁petitioner	-10247
▁Space	-10248
caps	-10249
▁***	-10250
▁os	-10251
gypt	-10252
utch	-10253
▁discipl	-10254
meta	-10255
ervation	-10256
▁classic	-10257
▁administrative	-10258
▁fewer	-10259
scape	-10260
(3)	-10261
vy	-10262
▁Gar	-10263
▁males	-10264
▁fract	-10265
▁drivers	-10266
▁Davis	-10267
▁ingredients	-10268
▁Lett	-10269
▁19,	-10270
▁wheel	-10271
^2$	-10272
▁hospit	-10273
▁marker	-10274
▁km	-10275
▁east	-10276
dest	-10277
▁Due	-10278
▁audio	-10279
▁yesterday	-10280
▁bread	-10281
Tree	-10282
3;	-10283
▁16.	-10284
chor	-10285
<\	-10286
cule	-10287
▁84	-10288
▁Management	-10289
▁Wis	-10290
FE	-10291
aze	-10292
▁Valley	-10293
▁Discussion	-10294
▁PL	-10295
▁variance	-10296
▁Asia	-10297
▁signature	-10298
▁rejected	-10299
▁underw	-10300
▁elevated	-10301
▁moral	-10302
▁semiconductor	-10303
▁grew	-10304
internal	-10305
ICENSE	-10306
lectric	-10307
mond	-10308
▁-8	-10309
▁investors	-10310
-05	-10311
ped	-10312
▁96	-10313
▁difficulty	-10314
adium	-10315
▁Jr	-10316
ARD	-10317
▁Defendants	-10318
ón	-10319
inction	-10320
access	-10321
ctx	-10322
▁abandon	-10323
Direct	-10324
▁$4	-10325
anim	-10326
American	-10327
ochemical	-10328
^-	-10329
▁typed	-10330
▁comparing	-10331
▁leaf	-10332
7\	-10333
owa	-10334
remove	-10335
110	-10336
▁pulse	-10337
▁welcome	-10338
▁inequality	-10339
▁sending	-10340
wan	-10341
▁da	-10342
None	-10343
▁genu	-10344
▁ride	-10345
▁Plaintiffs	-10346
▁rooms	-10347
▁Force	-10348
otyp	-10349
URE	-10350
▁Exec	-10351
Num	-10352
▁Ep	-10353
Str	-10354
esome	-10355
▁nearby	-10356
▁namely	-10357
hemat	-10358
▁enabled	-10359
▁soc	-10360
▁Catholic	-10361
cludes	-10362
▁matching	-10363
uan	-10364
▁Proposition	-10365
Connection	-10366
unct	-10367
▁multip	-10368
▁EL	-10369
▁soci	-10370
▁neural	-10371
Url	-10372
▁commitment	-10373
▁modification	-10374
▁fifth	-10375
isa	-10376
FD	-10377
rase	-10378
▁descript	-10379
▁Respon	-10380
Min	-10381
VC	-10382
Ptr	-10383
▁atoms	-10384
WS	-10385
▁DM	-10386
▁rear	-10387
----------	-10388
▁machines	-10389
▁trace	-10390
Right	-10391
formed	-10392
▁blind	-10393
gener	-10394
▁invent	-10395
▁frust	-10396
▁settlement	-10397
7/	-10398
▁88	-10399
▁sulf	-10400
Pi	-10401
ito	-10402
▁sharp	-10403
WR	-10404
▁[4	-10405
▁elections	-10406
▁Study	-10407
▁coordinates	-10408
double	-10409
▁absorption	-10410
▁imper	-10411
NR	-10412
18,	-10413
és	-10414
▁≥	-10415
▁adjusted	-10416
_0,	-10417
minent	-10418
▁CEO	-10419
▁Engine	-10420
▁measuring	-10421
▁ms	-10422
TP	-10423
▁74	-10424
Deb	-10425
▁-0.0	-10426
▁movies	-10427
▁privacy	-10428
rical	-10429
romise	-10430
location	-10431
▁impair	-10432
zer	-10433
▁peripheral	-10434
▁naturally	-10435
▁2.2	-10436
▁sky	-10437
▁Standard	-10438
▁pla	-10439
▁females	-10440
!”	-10441
▁scored	-10442
▁magnet	-10443
▁Community	-10444
1.5	-10445
▁precisely	-10446
▁participation	-10447
▁MAP	-10448
▁(12	-10449
▁restricted	-10450
▁scientists	-10451
▁reduces	-10452
▁prospect	-10453
▁Bon	-10454
Ver	-10455
wered	-10456
Update	-10457
▁scheduled	-10458
Mem	-10459
▁somewhere	-10460
Task	-10461
▁proven	-10462
▁continuing	-10463
▁doctors	-10464
framework	-10465
▁suppress	-10466
▁programming	-10467
▁deploy	-10468
▁EV	-10469
leton	-10470
▁ml	-10471
addr	-10472
▁bulk	-10473
▁legit	-10474
iously	-10475
▁4-	-10476
▁buying	-10477
][@	-10478
auth	-10479
▁undert	-10480
Run	-10481
▁unw	-10482
▁loading	-10483
▁independently	-10484
params	-10485
▁cable	-10486
ponents	-10487
ders	-10488
▁(2.	-10489
cean	-10490
▁composed	-10491
▁communications	-10492
%%%%	-10493
▁Men	-10494
store	-10495
Equals	-10496
TTP	-10497
_1(	-10498
▁progn	-10499
▁reward	-10500
▁fel	-10501
▁lists	-10502
▁22,	-10503
▁Lead	-10504
▁Ye	-10505
ogether	-10506
6).	-10507
▁receiver	-10508
▁pharmac	-10509
▁partition	-10510
grav	-10511
▁23,	-10512
▁Ken	-10513
Range	-10514
▁covering	-10515
▁capac	-10516
ilibrium	-10517
▁adds	-10518
▁papers	-10519
including	-10520
▁herein	-10521
▁Lear	-10522
Exec	-10523
▁Pass	-10524
▁clot	-10525
▁desk	-10526
▁kinase	-10527
008	-10528
▁diverse	-10529
▁Pay	-10530
▁Van	-10531
BE	-10532
▁recom	-10533
▁generating	-10534
▁byte	-10535
▁posit	-10536
▁executed	-10537
▁Age	-10538
▁Syria	-10539
▁ru	-10540
▁substit	-10541
ETH	-10542
▁timing	-10543
▁era	-10544
▁opinions	-10545
usr	-10546
▁presidential	-10547
▁UV	-10548
▁crimes	-10549
▁failing	-10550
▁Mic	-10551
ONE	-10552
▁DR	-10553
:200	-10554
-----------	-10555
First	-10556
▁gran	-10557
▁partnership	-10558
neum	-10559
eties	-10560
▁ease	-10561
blog	-10562
anguages	-10563
▁GP	-10564
▁gram	-10565
▁Egypt	-10566
LY	-10567
▁athlet	-10568
hav	-10569
▁Wilson	-10570
▁expenses	-10571
▁locally	-10572
ourses	-10573
▁closing	-10574
▁aircraft	-10575
▁Adv	-10576
Offset	-10577
19,	-10578
orse	-10579
▁1990	-10580
▁evil	-10581
holder	-10582
aka	-10583
legate	-10584
▁reasonably	-10585
▁lipid	-10586
▁20.	-10587
▁uncon	-10588
▁mL	-10589
parse	-10590
rea	-10591
MENT	-10592
▁accompan	-10593
▁Camb	-10594
▁revolution	-10595
▁proud	-10596
▁quot	-10597
▁nutrition	-10598
Provider	-10599
▁forum	-10600
FOR	-10601
inating	-10602
▁Wat	-10603
▁agric	-10604
▁vectors	-10605
▁Eval	-10606
','	-10607
▁river	-10608
▁Having	-10609
bas	-10610
▁precise	-10611
Application	-10612
▁Different	-10613
Eng	-10614
Pol	-10615
kit	-10616
two	-10617
Location	-10618
command	-10619
ses	-10620
▁Walk	-10621
}"	-10622
razy	-10623
▁Way	-10624
▁garden	-10625
iry	-10626
▁codes	-10627
▁cheap	-10628
▁yards	-10629
▁Es	-10630
▁Miller	-10631
▁exhibit	-10632
▁frequent	-10633
▁priority	-10634
}}}}	-10635
▁surprised	-10636
person	-10637
tmp	-10638
omething	-10639
▁Policy	-10640
▁attributes	-10641
▁inher	-10642
ologist	-10643
▁passion	-10644
issions	-10645
+2	-10646
Core	-10647
▁produces	-10648
3_	-10649
orial	-10650
002	-10651
▁Meanwhile	-10652
▁0);	-10653
▁temporary	-10654
▁3:	-10655
▁Nevertheless	-10656
▁aimed	-10657
▁Rights	-10658
byte	-10659
blue	-10660
SQL	-10661
▁cuts	-10662
▁updates	-10663
▁whenever	-10664
▁76	-10665
HOUT	-10666
▁+\	-10667
▁advent	-10668
▁witnesses	-10669
▁refers	-10670
1$	-10671
▁vertex	-10672
▁plurality	-10673
▁providers	-10674
▁Dou	-10675
ACT	-10676
▁waves	-10677
>\	-10678
lu	-10679
Supplementary	-10680
NE	-10681
▁(“	-10682
▁dish	-10683
ITION	-10684
▁heads	-10685
▁Ray	-10686
wed	-10687
Menu	-10688
IVE	-10689
alls	-10690
▁pitch	-10691
▁inhibitors	-10692
▁($\	-10693
▁Lew	-10694
▁Hig	-10695
iments	-10696
▁"/	-10697
▁hasn	-10698
▁rain	-10699
else	-10700
▁79	-10701
▁Without	-10702
▁houses	-10703
▁cultures	-10704
micro	-10705
make	-10706
▁Cho	-10707
▁Roman	-10708
ucks	-10709
equal	-10710
iro	-10711
irection	-10712
9999	-10713
▁processed	-10714
▁Stan	-10715
▁ignore	-10716
▁Server	-10717
▁broadcast	-10718
cit	-10719
rous	-10720
ulty	-10721
▁51	-10722
▁wavelength	-10723
▁Officer	-10724
ori	-10725
docs	-10726
▁Lie	-10727
▁Matt	-10728
iden	-10729
▁HD	-10730
Entry	-10731
press	-10732
▁dominant	-10733
▁generic	-10734
▁Express	-10735
IE	-10736
▁cyl	-10737
stone	-10738
▁Process	-10739
▁Ba	-10740
▁orientation	-10741
▁frequencies	-10742
▁resist	-10743
▁duplic	-10744
▁Prior	-10745
▁trading	-10746
▁Design	-10747
▁improvements	-10748
▁overw	-10749
ylvan	-10750
▁IC	-10751
▁padding	-10752
▁spons	-10753
▁feelings	-10754
▁Quant	-10755
Entity	-10756
▁losses	-10757
▁divisor	-10758
▁Studies	-10759
▁Related	-10760
▁Israeli	-10761
▁annot	-10762
▁Andrew	-10763
refix	-10764
2>	-10765
▁valve	-10766
▁sorry	-10767
site	-10768
oric	-10769
▁31,	-10770
VM	-10771
some	-10772
master	-10773
Oh	-10774
▁governing	-10775
▁western	-10776
▁SM	-10777
rosis	-10778
ergies	-10779
)^	-10780
email	-10781
full	-10782
▁Henry	-10783
▁Ra	-10784
▁{"	-10785
▁swim	-10786
▁UI	-10787
▁(-1	-10788
▁3](#	-10789
▁busy	-10790
{(	-10791
ela	-10792
▁blank	-10793
▁Update	-10794
▁cycles	-10795
olt	-10796
shift	-10797
▁vascular	-10798
():	-10799
▁manufacturer	-10800
▁plates	-10801
▁Rod	-10802
▁coinc	-10803
▁permitted	-10804
▁Orig	-10805
▁MR	-10806
charg	-10807
▁OP	-10808
ariate	-10809
▁bomb	-10810
▁marks	-10811
istical	-10812
igrants	-10813
itan	-10814
▁broke	-10815
ologically	-10816
▁shoulder	-10817
▁nerv	-10818
ati	-10819
▁notion	-10820
▁nerve	-10821
▁plea	-10822
▁invalid	-10823
▁careful	-10824
▁watched	-10825
▁army	-10826
▁modules	-10827
Height	-10828
▁mathemat	-10829
▁Contin	-10830
▁Lim	-10831
dp	-10832
▁suddenly	-10833
'}	-10834
▁silver	-10835
▁architecture	-10836
▁colour	-10837
▁Afghan	-10838
▁videos	-10839
▁legs	-10840
▁submit	-10841
Valid	-10842
009	-10843
▁hook	-10844
▁Major	-10845
▁antigen	-10846
▁folder	-10847
▁Third	-10848
▁GR	-10849
▁aer	-10850
▁awareness	-10851
▁Tax	-10852
▁basket	-10853
▁compute	-10854
▁perturb	-10855
▁weapon	-10856
▁bid	-10857
▁\;	-10858
▁organized	-10859
cache	-10860
▁WITHOUT	-10861
▁returning	-10862
NP	-10863
▁Joseph	-10864
▁Factor	-10865
▁trib	-10866
▁tiny	-10867
▁carb	-10868
=1}^{	-10869
materials	-10870
▁checks	-10871
▁disability	-10872
▁Southern	-10873
▁respiratory	-10874
▁fluorescence	-10875
▁Wel	-10876
▁streets	-10877
▁contracts	-10878
.$	-10879
▁Scient	-10880
▁bounded	-10881
Theta	-10882
install	-10883
nc	-10884
/8	-10885
17.	-10886
▁$[	-10887
▁teen	-10888
▁geometry	-10889
0.2	-10890
▁haz	-10891
▁taught	-10892
▁directions	-10893
]);	-10894
mpty	-10895
▁Spanish	-10896
redit	-10897
▁-15	-10898
▁holes	-10899
▁unlikely	-10900
▁Path	-10901
▁teeth	-10902
▁roughly	-10903
▁paths	-10904
▁recipe	-10905
agent	-10906
▁marijuana	-10907
▁Wild	-10908
olesterol	-10909
▁с	-10910
▁conclusions	-10911
▁Fre	-10912
ibration	-10913
▁personnel	-10914
GO	-10915
emic	-10916
▁restriction	-10917
▁disappoint	-10918
▁\"	-10919
fd	-10920
▁consisting	-10921
insic	-10922
▁Android	-10923
▁dispute	-10924
}+\	-10925
▁uncertainty	-10926
?'	-10927
▁covers	-10928
Dir	-10929
▁talks	-10930
▁struggle	-10931
▁somehow	-10932
▁utility	-10933
▁Rap	-10934
▁alive	-10935
pson	-10936
▁deviation	-10937
▁transplant	-10938
ethe	-10939
▁verify	-10940
▁sodium	-10941
▁elsewhere	-10942
istence	-10943
white	-10944
▁talked	-10945
▁tank	-10946
▁Italian	-10947
Module	-10948
oplus	-10949
▁2003	-10950
▁mistake	-10951
▁pra	-10952
▁algorithms	-10953
▁extraction	-10954
▁2.5	-10955
▁"$	-10956
▁convicted	-10957
▁explains	-10958
(3	-10959
Acc	-10960
wart	-10961
▁modul	-10962
▁cooking	-10963
▁в	-10964
^−1^	-10965
icket	-10966
;</	-10967
▁Access	-10968
aired	-10969
▁overcome	-10970
▁converted	-10971
ylvania	-10972
▁upload	-10973
depend	-10974
▁Bob	-10975
▁crowd	-10976
Sl	-10977
IX	-10978
▁suffer	-10979
)}{	-10980
▁ho	-10981
textrm	-10982
ova	-10983
omorphism	-10984
003	-10985
metric	-10986
▁entries	-10987
Names	-10988
▁Family	-10989
▁parking	-10990
prise	-10991
▁seasons	-10992
▁resolved	-10993
▁availability	-10994
utable	-10995
▁reject	-10996
▁singular	-10997
▁98	-10998
backs	-10999
256	-11000
▁considerable	-11001
urable	-11002
Position	-11003
rell	-11004
▁97	-11005
▁strings	-11006
aver	-11007
Access	-11008
▁28,	-11009
opes	-11010
▁completion	-11011
▁Ire	-11012
Sim	-11013
endix	-11014
illance	-11015
oria	-11016
▁passage	-11017
▁prevention	-11018
▁Dar	-11019
bled	-11020
▁$10	-11021
▁flash	-11022
▁Python	-11023
▁medication	-11024
▁affects	-11025
▁MP	-11026
4\	-11027
▁peptide	-11028
▁('	-11029
}[	-11030
DER	-11031
▁irre	-11032
▁maintaining	-11033
▁&=&	-11034
▁viewed	-11035
▁ownership	-11036
ogenous	-11037
onical	-11038
ocus	-11039
▁filing	-11040
UST	-11041
▁Steve	-11042
▁meal	-11043
▁unre	-11044
▁tract	-11045
▁sizeof	-11046
▁Rub	-11047
▁Dig	-11048
▁readers	-11049
▁Head	-11050
athan	-11051
▁paras	-11052
ango	-11053
undle	-11054
▁Prim	-11055
Parameter	-11056
ropic	-11057
▁strange	-11058
fol	-11059
week	-11060
▁cleaning	-11061
▁LA	-11062
▁wet	-11063
▁advantages	-11064
aternal	-11065
▁powder	-11066
Level	-11067
▁onset	-11068
▁bowl	-11069
——	-11070
rat	-11071
craft	-11072
▁ty	-11073
▁rural	-11074
keys	-11075
▁Pur	-11076
▁convenient	-11077
▁Luc	-11078
▁giant	-11079
▁Apache	-11080
▁lawyer	-11081
▁Fort	-11082
▁hat	-11083
ona	-11084
▁89	-11085
▁barrier	-11086
acle	-11087
IGN	-11088
/12	-11089
▁WT	-11090
▁comprising	-11091
▁119	-11092
▁gang	-11093
enna	-11094
▁operated	-11095
▁vacuum	-11096
▁discussions	-11097
▁suppose	-11098
▁conve	-11099
Case	-11100
awn	-11101
▁recur	-11102
▁scattering	-11103
tree	-11104
▁debug	-11105
▁Sche	-11106
▁regularly	-11107
season	-11108
▁refuge	-11109
▁refere	-11110
▁112	-11111
▁dismissed	-11112
▁tea	-11113
▁trick	-11114
▁Centre	-11115
▁Ryan	-11116
▁satell	-11117
▁marg	-11118
▁personally	-11119
angers	-11120
▁NFL	-11121
ems	-11122
▁competing	-11123
uce	-11124
▁specim	-11125
▁87	-11126
bu	-11127
▁wed	-11128
'\	-11129
▁pushed	-11130
▁guarantee	-11131
-------------	-11132
▁Vari	-11133
ABILITY	-11134
sys	-11135
dra	-11136
Local	-11137
▁Full	-11138
NT	-11139
▁pod	-11140
▁occas	-11141
See	-11142
▁indirect	-11143
Activity	-11144
▁muc	-11145
FLAG	-11146
▁Represent	-11147
enda	-11148
Debug	-11149
Down	-11150
▁hash	-11151
▁worker	-11152
]{}\	-11153
................	-11154
▁sequencing	-11155
▁dysfunction	-11156
}}}\	-11157
▁ham	-11158
}}$.	-11159
▁satisfies	-11160
▁Swed	-11161
▁intellect	-11162
▁(5)	-11163
scribe	-11164
wedge	-11165
▁schem	-11166
ioned	-11167
▁rac	-11168
▁removing	-11169
▁oppon	-11170
▁centers	-11171
iest	-11172
MAX	-11173
inator	-11174
▁layout	-11175
rises	-11176
Left	-11177
▁Asian	-11178
▁atmosphere	-11179
vs	-11180
▁sustained	-11181
▁111	-11182
rooms	-11183
▁affili	-11184
▁Georgia	-11185
{1}{\	-11186
zona	-11187
Yes	-11188
▁bundle	-11189
False	-11190
ergic	-11191
▁portions	-11192
▁qualified	-11193
▁recommendations	-11194
idget	-11195
handle	-11196
▁governments	-11197
▁riv	-11198
ibraries	-11199
etics	-11200
ials	-11201
▁Taylor	-11202
▁incorporated	-11203
▁horizontal	-11204
ali	-11205
ownt	-11206
earing	-11207
▁keeps	-11208
18.	-11209
▁analyt	-11210
▁Royal	-11211
▁alb	-11212
▁entering	-11213
▁phenomenon	-11214
Pan	-11215
▁26,	-11216
hist	-11217
▁destination	-11218
▁packages	-11219
▁quantitative	-11220
ERROR	-11221
nsylvania	-11222
Impl	-11223
▁expanded	-11224
esity	-11225
▁synchron	-11226
aret	-11227
etary	-11228
Phys	-11229
fraid	-11230
▁maxim	-11231
▁Die	-11232
before	-11233
▁prelim	-11234
▁(15	-11235
iotic	-11236
stat	-11237
▁rice	-11238
atabase	-11239
▁council	-11240
template	-11241
▁systematic	-11242
▁thorough	-11243
OB	-11244
▁tape	-11245
▁Francisco	-11246
▁pm	-11247
SION	-11248
tons	-11249
800	-11250
▁FL	-11251
▁(0,	-11252
estival	-11253
subseteq	-11254
▁interventions	-11255
▁Palestin	-11256
▁confront	-11257
arters	-11258
fire	-11259
▁Index	-11260
▁['	-11261
uits	-11262
▁ultr	-11263
raine	-11264
▁Jersey	-11265
anti	-11266
то	-11267
▁telephone	-11268
yo	-11269
▁Northern	-11270
▁masses	-11271
▁worldwide	-11272
▁gradient	-11273
▁reaching	-11274
▁accumulation	-11275
▁colleagues	-11276
regulation	-11277
▁administered	-11278
dig	-11279
Tag	-11280
▁73	-11281
▁competitive	-11282
Change	-11283
▁hepat	-11284
▁exclusive	-11285
func	-11286
▁interference	-11287
▁captured	-11288
▁1980	-11289
▁degradation	-11290
▁gay	-11291
▁stations	-11292
ificial	-11293
herence	-11294
)"	-11295
▁separately	-11296
▁hack	-11297
*^	-11298
▁invasion	-11299
dc	-11300
▁mounted	-11301
Post	-11302
▁insufficient	-11303
▁demands	-11304
▁appeals	-11305
▁Er	-11306
onymous	-11307
break	-11308
address	-11309
▁Patent	-11310
11,	-11311
▁Overall	-11312
porary	-11313
holders	-11314
▁coding	-11315
▁CM	-11316
eping	-11317
▁execute	-11318
▁boat	-11319
▁Compar	-11320
▁aden	-11321
{3	-11322
▁recru	-11323
▁Conference	-11324
▁Term	-11325
▁faced	-11326
Bo	-11327
negative	-11328
▁addresses	-11329
oured	-11330
▁explos	-11331
▁gent	-11332
onto	-11333
hash	-11334
▁Hard	-11335
▁assays	-11336
}}}$	-11337
hus	-11338
adder	-11339
inking	-11340
bell	-11341
▁professor	-11342
▁94	-11343
Template	-11344
▁favour	-11345
▁psychological	-11346
putation	-11347
▁fired	-11348
▁fing	-11349
▁decreases	-11350
advant	-11351
▁FO	-11352
activity	-11353
sto	-11354
▁Children	-11355
3>	-11356
▁kidney	-11357
▁appreciate	-11358
▁cann	-11359
▁falls	-11360
overty	-11361
▁falling	-11362
mac	-11363
sex	-11364
▁intervals	-11365
anes	-11366
▁illustr	-11367
ITE	-11368
ponential	-11369
▁weren	-11370
4~	-11371
hire	-11372
▁THIS	-11373
ador	-11374
▁27,	-11375
▁scales	-11376
▁therap	-11377
0}	-11378
.;	-11379
▁craft	-11380
▁votes	-11381
▁Ol	-11382
▁Gi	-11383
PG	-11384
▁theories	-11385
▁soul	-11386
iberty	-11387
▁ALL	-11388
▁enum	-11389
▁interior	-11390
▁Dam	-11391
▁concrete	-11392
ailing	-11393
jections	-11394
setminus	-11395
▁appointed	-11396
▁professionals	-11397
osomes	-11398
ен	-11399
▁paragraph	-11400
▁constitute	-11401
"))	-11402
▁Pennsylvania	-11403
Po	-11404
`,	-11405
send	-11406
fin	-11407
▁elder	-11408
▁proceeding	-11409
pot	-11410
oved	-11411
rose	-11412
▁tensor	-11413
▁\#	-11414
ordan	-11415
▁stir	-11416
▁flexible	-11417
TV	-11418
▁rose	-11419
▁roots	-11420
-07	-11421
▁friendly	-11422
▁lunch	-11423
▁consecutive	-11424
aug	-11425
Container	-11426
▁SW	-11427
▁Week	-11428
▁Linux	-11429
debug	-11430
EV	-11431
▁Scot	-11432
estyle	-11433
▁18.	-11434
ocolate	-11435
▁reflected	-11436
▁rh	-11437
pie	-11438
Http	-11439
▁Cu	-11440
viously	-11441
▁cust	-11442
▁judicial	-11443
Tool	-11444
▁86	-11445
1~	-11446
domain	-11447
▁likelihood	-11448
inflamm	-11449
session	-11450
1(	-11451
▁NAS	-11452
oplasm	-11453
▁advertising	-11454
▁ML	-11455
▁eggs	-11456
▁awarded	-11457
req	-11458
mg	-11459
▁targeting	-11460
▁alignment	-11461
▁severity	-11462
illy	-11463
rained	-11464
▁physics	-11465
▁anymore	-11466
--------------	-11467
ijer	-11468
▁limitation	-11469
▁analyze	-11470
(-1	-11471
anded	-11472
idal	-11473
SET	-11474
uties	-11475
▁restrictions	-11476
▁storm	-11477
Op	-11478
▁Colorado	-11479
▁stone	-11480
▁9*	-11481
▁variants	-11482
_5	-11483
oving	-11484
▁solely	-11485
▁upt	-11486
▁toxic	-11487
▁similarly	-11488
door	-11489
▁medi	-11490
▁protective	-11491
▁115	-11492
▁household	-11493
▁relating	-11494
▁rising	-11495
wealth	-11496
▁Tenn	-11497
▁LI	-11498
▁2001	-11499
▁chip	-11500
▁Kenn	-11501
▁flood	-11502
comment	-11503
▁expectations	-11504
▁ov	-11505
aceut	-11506
▁drawing	-11507
▁130	-11508
Unit	-11509
▁passes	-11510
▁ancient	-11511
necess	-11512
▁lin	-11513
▁supplied	-11514
▁heavily	-11515
▁promoter	-11516
▁Tri	-11517
treated	-11518
▁Master	-11519
▁Love	-11520
▁Administration	-11521
2.0	-11522
▁comprises	-11523
angular	-11524
▁varying	-11525
▁Sometimes	-11526
▁seeds	-11527
▁crew	-11528
-2.	-11529
▁dop	-11530
▁expressions	-11531
eh	-11532
▁bands	-11533
▁ratios	-11534
such	-11535
reams	-11536
▁gon	-11537
▁29,	-11538
▁manual	-11539
▁sentencing	-11540
▁AG	-11541
dec	-11542
▁-16	-11543
%).	-11544
emed	-11545
▁engineering	-11546
▁immunity	-11547
▁vaccine	-11548
▁projection	-11549
EA	-11550
▁Indust	-11551
▁asympt	-11552
▁enzymes	-11553
>.	-11554
ialize	-11555
ryst	-11556
▁pixel	-11557
▁pilot	-11558
missible	-11559
pu	-11560
▁physician	-11561
▁hospitals	-11562
mal	-11563
▁Sn	-11564
▁malign	-11565
vironments	-11566
▁nervous	-11567
anted	-11568
▁movements	-11569
▁hide	-11570
▁offensive	-11571
(4	-11572
▁constantly	-11573
iley	-11574
▁absent	-11575
▁Academy	-11576
▁Bru	-11577
▁2012,	-11578
▁Cru	-11579
elfare	-11580
▁validation	-11581
cies	-11582
▁answered	-11583
▁subjected	-11584
▁Article	-11585
▁Mid	-11586
▁packet	-11587
▁coordinate	-11588
▁foundation	-11589
Sche	-11590
▁Islamic	-11591
▁tu	-11592
){#	-11593
▁turb	-11594
Current	-11595
▁erred	-11596
▁residual	-11597
Settings	-11598
▁ip	-11599
}}$,	-11600
▁folks	-11601
Last	-11602
aska	-11603
6]	-11604
▁meetings	-11605
▁accessible	-11606
▁infinite	-11607
▁corporation	-11608
▁Foot	-11609
▁angular	-11610
▁Beach	-11611
0;0;	-11612
▁Arizona	-11613
▁acquisition	-11614
▁gut	-11615
▁afraid	-11616
2.5	-11617
▁Should	-11618
▁82	-11619
▁Ly	-11620
▁mamm	-11621
▁STAT	-11622
▁»	-11623
▁Altern	-11624
▁Crim	-11625
agonal	-11626
▁defines	-11627
yy	-11628
▁JSON	-11629
sql	-11630
^2}	-11631
clipse	-11632
▁Environment	-11633
▁honor	-11634
container	-11635
▁roof	-11636
oir	-11637
▁json	-11638
fact	-11639
opher	-11640
ologists	-11641
late	-11642
95%	-11643
▁nations	-11644
eries	-11645
security	-11646
▁Fred	-11647
▁implications	-11648
etry	-11649
▁beach	-11650
CB	-11651
making	-11652
▁Gene	-11653
▁soldiers	-11654
▁infer	-11655
▁enjoyed	-11656
▁html	-11657
▁installation	-11658
▁specify	-11659
ouston	-11660
▁202	-11661
▁heating	-11662
IME	-11663
▁diver	-11664
▁patch	-11665
LD	-11666
PY	-11667
▁creative	-11668
▁developers	-11669
▁breach	-11670
izz	-11671
xc	-11672
▁conjug	-11673
▁beneficial	-11674
▁}}	-11675
▁hunt	-11676
ensities	-11677
▁carcinoma	-11678
▁calcium	-11679
{"	-11680
▁vice	-11681
▁atom	-11682
Grid	-11683
}}(\	-11684
ILL	-11685
▁temporal	-11686
▁bike	-11687
▁incons	-11688
▁113	-11689
▁conce	-11690
▁innoc	-11691
▁abundance	-11692
AMP	-11693
▁cheese	-11694
▁distinguish	-11695
ritten	-11696
▁Rog	-11697
black	-11698
▁SA	-11699
▁bonds	-11700
▁Hz	-11701
ynamic	-11702
▁stuck	-11703
▁Ireland	-11704
▁FBI	-11705
▁artery	-11706
▁Place	-11707
▁assignment	-11708
▁gest	-11709
fc	-11710
▁sauce	-11711
Cache	-11712
▁21.	-11713
▁ages	-11714
associated	-11715
aland	-11716
cycl	-11717
through	-11718
Title	-11719
▁ranging	-11720
▁preliminary	-11721
udio	-11722
overs	-11723
changed	-11724
dagger	-11725
▁exem	-11726
Sm	-11727
▁dump	-11728
▁Cost	-11729
▁feeding	-11730
▁Pot	-11731
▁fusion	-11732
STAT	-11733
▁2013,	-11734
▁desirable	-11735
forms	-11736
▁thinks	-11737
green	-11738
ILE	-11739
bus	-11740
▁vitamin	-11741
Top	-11742
▁83	-11743
▁Pop	-11744
world	-11745
bc	-11746
_2\	-11747
*]{},	-11748
▁(%)	-11749
}}_{\	-11750
uations	-11751
250	-11752
▁Bitcoin	-11753
otide	-11754
icking	-11755
naire	-11756
ictions	-11757
▁macroph	-11758
▁matrices	-11759
..\	-11760
▁PB	-11761
lers	-11762
yers	-11763
▁Rather	-11764
▁Specifically	-11765
defined	-11766
images	-11767
irtual	-11768
ijerph	-11769
underline	-11770
▁Unless	-11771
▁epidem	-11772
▁eligible	-11773
[2]	-11774
▁admit	-11775
Any	-11776
▁Tal	-11777
▁beauty	-11778
▁acceptable	-11779
00000	-11780
▁automatic	-11781
achine	-11782
▁laid	-11783
erk	-11784
▁IM	-11785
▁Photo	-11786
▁caps	-11787
▁sees	-11788
obic	-11789
acet	-11790
_{2}	-11791
▁2/	-11792
▁consistently	-11793
REF	-11794
task	-11795
▁crazy	-11796
▁immigration	-11797
▁mas	-11798
loop	-11799
▁recruit	-11800
▁para	-11801
)}$	-11802
Store	-11803
LI	-11804
1>	-11805
▁HO	-11806
▁hoping	-11807
▁voting	-11808
▁narr	-11809
igate	-11810
▁tet	-11811
▁occurrence	-11812
acco	-11813
▁altered	-11814
nament	-11815
binding	-11816
▁Command	-11817
▁amended	-11818
▁effectiveness	-11819
$]{}	-11820
▁PART	-11821
▁Carl	-11822
▁precision	-11823
▁normalized	-11824
▁(14	-11825
▁lean	-11826
uri	-11827
▁grass	-11828
▁stom	-11829
▁Championship	-11830
▁Short	-11831
stra	-11832
▁-------	-11833
▁facilitate	-11834
▁insight	-11835
▁(13	-11836
Utils	-11837
athy	-11838
1\]	-11839
kind	-11840
hesized	-11841
▁unclear	-11842
▁unusual	-11843
norm	-11844
▁pointer	-11845
[$	-11846
▁visited	-11847
▁deposition	-11848
een	-11849
▁earned	-11850
▁determin	-11851
▁identifying	-11852
▁2002	-11853
complete	-11854
otion	-11855
▁sessions	-11856
bot	-11857
▁Series	-11858
▁guidance	-11859
isp	-11860
ometer	-11861
▁harvest	-11862
▁labels	-11863
▁Prem	-11864
▁clause	-11865
▁Bell	-11866
olving	-11867
▁edit	-11868
fi	-11869
▁armed	-11870
▁Ltd	-11871
▁Share	-11872
ropri	-11873
SIZE	-11874
▁transportation	-11875
▁DIS	-11876
▁arrangement	-11877
Option	-11878
▁Polit	-11879
▁molecule	-11880
▁lights	-11881
▁bub	-11882
there	-11883
▁Publ	-11884
mony	-11885
custom	-11886
bold	-11887
▁infect	-11888
▁spiritual	-11889
▁struck	-11890
token	-11891
▁aging	-11892
▁randomly	-11893
▁lumin	-11894
▁hierarch	-11895
▁violent	-11896
ivariate	-11897
▁perceived	-11898
▁Consequently	-11899
▁skill	-11900
▁attended	-11901
▁tracking	-11902
iva	-11903
▁designs	-11904
▁complexes	-11905
izable	-11906
pres	-11907
▁Saud	-11908
,{\	-11909
▁Kit	-11910
▁liberal	-11911
▁Jews	-11912
▁disadvant	-11913
▁Medicine	-11914
tk	-11915
widget	-11916
nan	-11917
▁Fair	-11918
▁bankruptcy	-11919
▁Ah	-11920
condition	-11921
▁114	-11922
Interface	-11923
▁parse	-11924
▁tips	-11925
cam	-11926
▁ending	-11927
▁disabled	-11928
▁politicians	-11929
]{.	-11930
diff	-11931
▁ruled	-11932
Types	-11933
Rel	-11934
amic	-11935
▁chemotherapy	-11936
▁treating	-11937
▁allegedly	-11938
\}$	-11939
iration	-11940
▁integrity	-11941
▁	-11942
stop	-11943
▁100,	-11944
bind	-11945
▁rom	-11946
▁dipl	-11947
▁rarely	-11948
ulative	-11949
instance	-11950
▁overwhel	-11951
hour	-11952
▁violated	-11953
acer	-11954
▁shorter	-11955
▁oxide	-11956
▁4)	-11957
closure	-11958
▁doctrine	-11959
wa	-11960
▁destroyed	-11961
125	-11962
\}	-11963
▁(@	-11964
ashes	-11965
arse	-11966
▁promising	-11967
▁Eastern	-11968
▁AC	-11969
▁surge	-11970
game	-11971
▁Connect	-11972
Mult	-11973
▁−0.	-11974
▁Ren	-11975
▁currency	-11976
eman	-11977
▁shopping	-11978
&=	-11979
▁tur	-11980
▁washed	-11981
join	-11982
▁Nick	-11983
▁Example	-11984
▁Immun	-11985
▁|\	-11986
▁н	-11987
▁+/-	-11988
▁typedef	-11989
Device	-11990
▁92	-11991
▁Saf	-11992
▁vital	-11993
Fs	-11994
▁$.	-11995
▁childhood	-11996
atile	-11997
gered	-11998
▁Mah	-11999
▁collective	-12000
▁computing	-12001
▁Spain	-12002
pred	-12003
▁decent	-12004
-(	-12005
effective	-12006
▁stup	-12007
final	-12008
▁pub	-12009
▁Search	-12010
hspace	-12011
▁Sir	-12012
▁decor	-12013
total	-12014
▁inherent	-12015
▁af	-12016
▁extern	-12017
▁lifetime	-12018
Port	-12019
▁phases	-12020
▁Phot	-12021
▁ultimate	-12022
▁olig	-12023
▁Title	-12024
▁puts	-12025
▁-------------	-12026
+00	-12027
▁BR	-12028
VI	-12029
▁PE	-12030
▁(16	-12031
oning	-12032
▁monthly	-12033
▁photograph	-12034
▁Word	-12035
▁parad	-12036
▁swit	-12037
▁Ox	-12038
piracy	-12039
▁metall	-12040
.]	-12041
36,	-12042
▁residence	-12043
nex	-12044
▁fi	-12045
▁repeatedly	-12046
▁symmetric	-12047
▁iso	-12048
alling	-12049
▁checking	-12050
▁"<	-12051
▁pneum	-12052
dated	-12053
Xiv	-12054
▁steady	-12055
adi	-12056
▁residues	-12057
▁utilized	-12058
BUG	-12059
odynam	-12060
family	-12061
Graph	-12062
▁mock	-12063
▁mixing	-12064
▁scalar	-12065
Pat	-12066
▁campus	-12067
stron	-12068
amps	-12069
▁bless	-12070
▁languages	-12071
▁Anderson	-12072
KEY	-12073
wrap	-12074
ifiers	-12075
▁accompanied	-12076
▁leuk	-12077
▁prosecutor	-12078
Go	-12079
Work	-12080
_+	-12081
▁cum	-12082
▁flavor	-12083
▁Property	-12084
[2	-12085
▁193	-12086
▁Rh	-12087
▁Hu	-12088
004){	-12089
▁pulmonary	-12090
▁deeply	-12091
drop	-12092
▁Guard	-12093
Ke	-12094
Cal	-12095
^{-\	-12096
▁bunch	-12097
▁birds	-12098
eling	-12099
▁Convert	-12100
gov	-12101
▁blot	-12102
▁transactions	-12103
phal	-12104
▁bull	-12105
▁Psych	-12106
1.2	-12107
...]	-12108
Enc	-12109
▁Lic	-12110
▁reversed	-12111
should	-12112
▁declined	-12113
▁tall	-12114
tri	-12115
channel	-12116
lined	-12117
hol	-12118
▁municip	-12119
▁harder	-12120
▁joy	-12121
lower	-12122
$^{	-12123
desc	-12124
ami	-12125
▁environments	-12126
▁legislative	-12127
▁horse	-12128
▁entertain	-12129
▁newspaper	-12130
7).	-12131
▁ME	-12132
▁feas	-12133
▁smile	-12134
found	-12135
▁occurring	-12136
▁5%	-12137
▁exhibited	-12138
orneys	-12139
evin	-12140
ogl	-12141
▁arranged	-12142
▁NE	-12143
develop	-12144
▁clothes	-12145
aza	-12146
▁jet	-12147
▁pel	-12148
▁hadn	-12149
&#	-12150
ando	-12151
_,	-12152
▁subsid	-12153
oves	-12154
▁adoles	-12155
Next	-12156
don	-12157
methyl	-12158
RES	-12159
isl	-12160
dent	-12161
▁Hope	-12162
▁Cancer	-12163
▁recovered	-12164
success	-12165
▁readily	-12166
irk	-12167
▁Brook	-12168
▁1);	-12169
▁disagree	-12170
▁slic	-12171
▁topics	-12172
▁lys	-12173
LP	-12174
▁Interestingly	-12175
.),	-12176
▁Win	-12177
"));	-12178
iger	-12179
25.	-12180
inflammatory	-12181
▁derivatives	-12182
▁2\	-12183
▁arc	-12184
▁reporter	-12185
▁Watch	-12186
▁25.	-12187
RR	-12188
▁Cas	-12189
▁python	-12190
▁vessel	-12191
hard	-12192
}-\	-12193
fish	-12194
▁Select	-12195
hot	-12196
▁stellar	-12197
▁authorized	-12198
▁Core	-12199
▁pending	-12200
▁Agreement	-12201
sch	-12202
▁supporters	-12203
zone	-12204
▁2014,	-12205
olly	-12206
▁flags	-12207
▁embedded	-12208
▁defects	-12209
▁interpreted	-12210
▁voted	-12211
▁WARRANTIES	-12212
wall	-12213
▁writes	-12214
Draw	-12215
Empty	-12216
▁mitochondrial	-12217
▁Professor	-12218
▁Pacific	-12219
▁buck	-12220
▁reveals	-12221
▁crash	-12222
berry	-12223
▁wireless	-12224
▁una	-12225
Document	-12226
▁fibers	-12227
▁Ident	-12228
acon	-12229
▁600	-12230
▁180	-12231
▁Adam	-12232
▁surveillance	-12233
pton	-12234
▁panels	-12235
▁survive	-12236
▁concepts	-12237
▁correlations	-12238
▁140	-12239
uv	-12240
▁cooling	-12241
▁printed	-12242
▁Ho	-12243
▁orbit	-12244
-09-00	-12245
▁everywhere	-12246
worth	-12247
▁10-	-12248
Return	-12249
Cor	-12250
▁Link	-12251
▁doors	-12252
People	-12253
▁rating	-12254
▁CF	-12255
▁mere	-12256
asant	-12257
stable	-12258
▁pregnant	-12259
▁prosecution	-12260
▁trail	-12261
▁illustrated	-12262
▁wake	-12263
othelial	-12264
oyd	-12265
▁Statistical	-12266
▁doses	-12267
▁drain	-12268
ESM	-12269
ulator	-12270
▁Arg	-12271
▁93	-12272
▁Tour	-12273
$$\	-12274
▁predomin	-12275
▁registration	-12276
'>	-12277
▁systemic	-12278
iscal	-12279
ocker	-12280
omorphic	-12281
▁$('	-12282
▁Games	-12283
000.	-12284
▁improper	-12285
DU	-12286
▁connecting	-12287
▁studying	-12288
▁Sus	-12289
▁Grant	-12290
aki	-12291
▁okay	-12292
▁courses	-12293
role	-12294
▁2011,	-12295
▁printing	-12296
▁southern	-12297
cmd	-12298
▁Recently	-12299
support	-12300
▁YOU	-12301
▁labeled	-12302
▁Commer	-12303
▁unlike	-12304
Order	-12305
▁glad	-12306
▁prominent	-12307
▁cholesterol	-12308
▁RA	-12309
▁Viet	-12310
▁24.	-12311
▁Opt	-12312
UND	-12313
ricular	-12314
▁--------------	-12315
rus	-12316
▁Inf	-12317
plates	-12318
▁Comb	-12319
▁loans	-12320
▁troops	-12321
orous	-12322
▁Has	-12323
=====	-12324
AME	-12325
apshot	-12326
▁Agency	-12327
▁duties	-12328
Vector	-12329
ра	-12330
▁influenced	-12331
▁mirror	-12332
formance	-12333
offs	-12334
versely	-12335
▁discrete	-12336
0.1	-12337
▁DB	-12338
▁associations	-12339
▁galaxy	-12340
outer	-12341
▁lett	-12342
sis	-12343
▁pron	-12344
flags	-12345
▁batch	-12346
▁contra	-12347
Mar	-12348
▁arise	-12349
▁validity	-12350
▁Gener	-12351
▁denotes	-12352
▁2010,	-12353
▁invariant	-12354
▁plasm	-12355
▁compatible	-12356
▁[3](#	-12357
Red	-12358
idav	-12359
connection	-12360
SV	-12361
▁gained	-12362
Nav	-12363
▁raising	-12364
▁xmlns	-12365
▁Iowa	-12366
ISA	-12367
▁Ford	-12368
▁1998	-12369
▁fert	-12370
▁excessive	-12371
▁Commonwealth	-12372
▁kil	-12373
▁coli	-12374
window	-12375
▁ultra	-12376
▁inspired	-12377
▁resonance	-12378
▁ignored	-12379
fields	-12380
▁embodiment	-12381
uble	-12382
▁burst	-12383
▁Jun	-12384
▁Jordan	-12385
clusively	-12386
uz	-12387
▁Univers	-12388
▁prospective	-12389
▁preventing	-12390
▁northern	-12391
endor	-12392
▁computation	-12393
▁transmitted	-12394
▁neighb	-12395
javascript	-12396
tn	-12397
perp	-12398
▁enemy	-12399
▁disrupt	-12400
▁contacts	-12401
Rect	-12402
=>	-12403
▁23.	-12404
▁callback	-12405
▁Kingdom	-12406
ANG	-12407
TL	-12408
▁smoke	-12409
="../../../../	-12410
ucl	-12411
▁tension	-12412
▁denial	-12413
▁Lind	-12414
▁Images	-12415
render	-12416
▁tone	-12417
▁cardiovascular	-12418
reference	-12419
background	-12420
▁switching	-12421
▁isolation	-12422
▁PHP	-12423
▁actor	-12424
▁rs	-12425
▁propose	-12426
▁perception	-12427
▁amendment	-12428
licenses	-12429
rup	-12430
plot	-12431
▁bottle	-12432
▁exciting	-12433
pository	-12434
▁2015,	-12435
▁electricity	-12436
queue	-12437
▁knee	-12438
▁expressing	-12439
scription	-12440
(){	-12441
}^{(	-12442
▁BC	-12443
▁102	-12444
▁diffusion	-12445
insert	-12446
bd	-12447
▁forever	-12448
▁Silver	-12449
apor	-12450
▁1$	-12451
cells	-12452
▁temp	-12453
▁publicly	-12454
▁phenotype	-12455
!)	-12456
▁(17	-12457
▁eliminate	-12458
▁oste	-12459
ushing	-12460
▁hol	-12461
urations	-12462
pection	-12463
▁2016,	-12464
▁mountain	-12465
▁Bab	-12466
▁hopes	-12467
▁$0	-12468
▁combine	-12469
▁Little	-12470
enable	-12471
▁factory	-12472
-06	-12473
adel	-12474
▁Hor	-12475
▁22.	-12476
boot	-12477
▁104	-12478
▁gross	-12479
nesota	-12480
▁defensive	-12481
▁Il	-12482
analysis	-12483
▁Ce	-12484
rend	-12485
▁equilibrium	-12486
▁Supplementary	-12487
oline	-12488
regular	-12489
0.8	-12490
▁flour	-12491
cler	-12492
owski	-12493
Description	-12494
heast	-12495
super	-12496
/(-2	-12497
▁Son	-12498
▁founded	-12499
▁Cub	-12500
▁delayed	-12501
intage	-12502
▁episodes	-12503
imp	-12504
▁Ash	-12505
~4~	-12506
▁Zealand	-12507
groups	-12508
2015	-12509
*~*	-12510
0.3	-12511
2),	-12512
▁117	-12513
▁permissions	-12514
▁franch	-12515
▁cin	-12516
▁Petition	-12517
▁commands	-12518
▁["	-12519
component	-12520
▁dip	-12521
Search	-12522
▁gravity	-12523
▁pancre	-12524
osomal	-12525
orable	-12526
▁difficulties	-12527
▁physically	-12528
global	-12529
▁116	-12530
▁obesity	-12531
▁Saint	-12532
▁regulated	-12533
alities	-12534
azz	-12535
ald	-12536
▁displays	-12537
lat	-12538
member	-12539
▁phosphorylation	-12540
▁obtaining	-12541
▁incorrect	-12542
strap	-12543
▁{@	-12544
mentioned	-12545
▁boxes	-12546
▁overnight	-12547
▁4:	-12548
▁unexpected	-12549
}]	-12550
elect	-12551
▁Clinical	-12552
▁acknowledge	-12553
uset	-12554
anna	-12555
▁cod	-12556
▁6-	-12557
ques	-12558
bral	-12559
▁generator	-12560
▁Ten	-12561
ringe	-12562
▁Less	-12563
plicity	-12564
004	-12565
▁jail	-12566
Pos	-12567
Gu	-12568
ONT	-12569
being	-12570
▁strengthen	-12571
▁specificity	-12572
▁literally	-12573
Integer	-12574
▁Daily	-12575
▁Ministry	-12576
▁Assert	-12577
Args	-12578
urated	-12579
{1}{2}	-12580
▁attributed	-12581
▁Creat	-12582
:=	-12583
olecular	-12584
▁assumptions	-12585
▁poverty	-12586
▁searching	-12587
▁Zh	-12588
▁exponential	-12589
▁Ear	-12590
Rad	-12591
▁param	-12592
▁Award	-12593
▁SR	-12594
words	-12595
▁texture	-12596
▁liked	-12597
▁Fif	-12598
eterm	-12599
▁10^{	-12600
floor	-12601
▁pounds	-12602
▁designated	-12603
▁dial	-12604
▁genuine	-12605
▁throm	-12606
▁blocked	-12607
tbl	-12608
▁retain	-12609
urg	-12610
MOESM	-12611
▁attitude	-12612
Dialog	-12613
▁interrupt	-12614
iy	-12615
,$$	-12616
▁Turkey	-12617
▁Kent	-12618
away	-12619
▁WITH	-12620
psy	-12621
▁pepper	-12622
▁functionality	-12623
▁philosophy	-12624
▁suicide	-12625
▁enables	-12626
▁harass	-12627
▁attractive	-12628
▁Eric	-12629
stic	-12630
Custom	-12631
▁affecting	-12632
▁vertices	-12633
▁destruction	-12634
rust	-12635
▁WE	-12636
▁pace	-12637
ucky	-12638
agan	-12639
▁abortion	-12640
▁oven	-12641
▁weights	-12642
▁(199	-12643
enders	-12644
▁maximal	-12645
engers	-12646
lot	-12647
▁Sov	-12648
scope	-12649
▁Was	-12650
▁visits	-12651
2"	-12652
**.	-12653
acks	-12654
▁unnecess	-12655
▁describing	-12656
3(	-12657
="0"	-12658
7]	-12659
▁deliber	-12660
▁Az	-12661
application	-12662
Ca	-12663
▁CPU	-12664
0.4	-12665
venth	-12666
▁-----------	-12667
▁Lat	-12668
▁guest	-12669
▁conspiracy	-12670
UG	-12671
acket	-12672
estamp	-12673
▁underwent	-12674
▁Node	-12675
▁reflects	-12676
urer	-12677
▁equality	-12678
mask	-12679
▁ink	-12680
▁filling	-12681
illary	-12682
plugin	-12683
Don	-12684
▁lying	-12685
▁cha	-12686
icker	-12687
▁convey	-12688
▁Columbia	-12689
▁tang	-12690
▁105	-12691
Bs	-12692
++;	-12693
mate	-12694
obacter	-12695
▁Hi	-12696
▁SS	-12697
▁trends	-12698
ensing	-12699
▁differently	-12700
ications	-12701
phy	-12702
▁Harris	-12703
▁premium	-12704
track	-12705
BV	-12706
aron	-12707
_0\	-12708
▁favorable	-12709
▁democracy	-12710
Tra	-12711
▁Register	-12712
oli	-12713
▁Within	-12714
iii	-12715
represent	-12716
▁SELECT	-12717
urd	-12718
aware	-12719
aux	-12720
▁inserted	-12721
ById	-12722
▁Summary	-12723
180	-12724
64_	-12725
▁behaviors	-12726
Widget	-12727
phe	-12728
▁weekly	-12729
▁rum	-12730
REG	-12731
▁bearing	-12732
▁rendered	-12733
▁selective	-12734
▁cord	-12735
bool	-12736
vit	-12737
Mark	-12738
▁segments	-12739
▁hits	-12740
Font	-12741
racle	-12742
▁Thom	-12743
mma	-12744
000,	-12745
▁fits	-12746
▁3.2	-12747
▁mold	-12748
▁progressive	-12749
▁investigations	-12750
apsed	-12751
/0	-12752
▁Fisher	-12753
▁indices	-12754
▁detector	-12755
▁Capt	-12756
oned	-12757
▁farmers	-12758
▁----------	-12759
izers	-12760
▁deals	-12761
▁interviews	-12762
}$$\	-12763
omers	-12764
▁Minnesota	-12765
^{*	-12766
▁fitness	-12767
-*	-12768
▁predictions	-12769
▁hang	-12770
▁batt	-12771
▁$1.	-12772
▁Assembly	-12773
appy	-12774
▁-17	-12775
utter	-12776
imation	-12777
▁pipe	-12778
▁CC	-12779
▁contest	-12780
▁hypertension	-12781
▁programme	-12782
phasis	-12783
}{2}	-12784
▁apps	-12785
▁disclosure	-12786
▁Returns	-12787
Pass	-12788
▁PBS	-12789
▁variant	-12790
▁hardly	-12791
jar	-12792
▁tomorrow	-12793
▁everybody	-12794
▁attempting	-12795
▁Santa	-12796
▁drag	-12797
▁Greek	-12798
▁math	-12799
Body	-12800
FILE	-12801
▁shr	-12802
ught	-12803
prim	-12804
▁ads	-12805
phosph	-12806
mates	-12807
▁clinic	-12808
▁(20	-12809
▁Similar	-12810
▁synthetic	-12811
▁Person	-12812
▁breaks	-12813
cases	-12814
▁NF	-12815
▁inverse	-12816
---------------	-12817
blem	-12818
Phone	-12819
▁gear	-12820
▁Defense	-12821
▁focusing	-12822
verexp	-12823
▁adapted	-12824
Reader	-12825
▁Toronto	-12826
▁negligence	-12827
▁computers	-12828
▁boundaries	-12829
▁fuck	-12830
category	-12831
COL	-12832
▁Bul	-12833
owed	-12834
▁Stephen	-12835
▁Gall	-12836
▁physicians	-12837
▁borrow	-12838
/(-1	-12839
▁Indiana	-12840
▁mortgage	-12841
~*	-12842
ND	-12843
▁quantities	-12844
Sign	-12845
placement	-12846
xs	-12847
▁1.4	-12848
▁retirement	-12849
▁sensors	-12850
▁PK	-12851
▁Know	-12852
▁hint	-12853
▁cosm	-12854
▁peer	-12855
interface	-12856
PORT	-12857
▁fitting	-12858
▁discount	-12859
Params	-12860
▁combat	-12861
▁preferably	-12862
imeq	-12863
yard	-12864
forall	-12865
▁spont	-12866
TF	-12867
▁Commissioner	-12868
▁lawsuit	-12869
▁varied	-12870
pow	-12871
▁Document	-12872
()->	-12873
▁combinations	-12874
7%	-12875
▁awesome	-12876
▁limiting	-12877
▁asks	-12878
heet	-12879
▁CG	-12880
▁Sav	-12881
▁ES	-12882
requency	-12883
▁catalyst	-12884
▁Dim	-12885
▁manually	-12886
▁restaurants	-12887
▁funded	-12888
▁satisfying	-12889
▁fatty	-12890
printf	-12891
▁complement	-12892
▁Houston	-12893
▁Lar	-12894
▁Sciences	-12895
▁quote	-12896
ocratic	-12897
▁matched	-12898
▁concur	-12899
simeq	-12900
▁Mu	-12901
▁gotten	-12902
▁AF	-12903
▁dates	-12904
▁traject	-12905
▁developer	-12906
▁thro	-12907
asted	-12908
nl	-12909
▁INT	-12910
▁Block	-12911
▁Early	-12912
▁reflection	-12913
▁regulate	-12914
▁scaling	-12915
▁spr	-12916
ritis	-12917
ockey	-12918
▁Sem	-12919
▁intracellular	-12920
bery	-12921
ograp	-12922
▁magic	-12923
ppers	-12924
Expression	-12925
▁guns	-12926
▁racial	-12927
aceutical	-12928
▁params	-12929
▁Bat	-12930
▁admin	-12931
▁Library	-12932
▁stretch	-12933
▁suspension	-12934
▁intellectual	-12935
▁cig	-12936
▁beliefs	-12937
▁cub	-12938
El	-12939
)),	-12940
ophag	-12941
▁collapse	-12942
▁downt	-12943
▁confident	-12944
▁PI	-12945
_2(	-12946
▁FR	-12947
▁epithelial	-12948
▁grate	-12949
▁[5	-12950
rophy	-12951
3:	-12952
▁funny	-12953
^^	-12954
▁Change	-12955
Iter	-12956
▁aims	-12957
PECT	-12958
tration	-12959
▁juice	-12960
modules	-12961
▁edition	-12962
yd	-12963
Session	-12964
▁bounds	-12965
▁choosing	-12966
▁Import	-12967
rapper	-12968
▁Moore	-12969
4_	-12970
ée	-12971
translation	-12972
▁lateral	-12973
▁2009,	-12974
▁enact	-12975
fusion	-12976
▁Ros	-12977
▁scoring	-12978
oga	-12979
erry	-12980
.*]{}	-12981
▁settled	-12982
uclear	-12983
▁deeper	-12984
▁intense	-12985
▁Holly	-12986
scal	-12987
===	-12988
▁dé	-12989
romagnetic	-12990
▁potent	-12991
uler	-12992
pin	-12993
▁plugin	-12994
CODE	-12995
▁consensus	-12996
(10	-12997
▁leak	-12998
▁vulnerable	-12999
▁await	-13000
▁chains	-13001
▁Parliament	-13002
▁peaks	-13003
▁glob	-13004
▁Gaussian	-13005
/−	-13006
lah	-13007
▁physiological	-13008
▁isolates	-13009
ALSE	-13010
▁entre	-13011
▁Would	-13012
abling	-13013
abis	-13014
▁viruses	-13015
ococ	-13016
riting	-13017
ishop	-13018
▁magazine	-13019
figure	-13020
▁cancel	-13021
▁strictly	-13022
▁Coast	-13023
profile	-13024
▁milit	-13025
▁Saudi	-13026
▁Nothing	-13027
="@	-13028
▁Five	-13029
▁Mas	-13030
▁dollar	-13031
▁objection	-13032
cas	-13033
▁damaged	-13034
km	-13035
iem	-13036
save	-13037
▁106	-13038
▁representations	-13039
▁''	-13040
gged	-13041
shape	-13042
▁TNF	-13043
▁cra	-13044
▁ions	-13045
▁Kevin	-13046
▁unem	-13047
▁Å	-13048
▁Exception	-13049
ceptions	-13050
▁frames	-13051
▁deficiency	-13052
▁2008,	-13053
▁platforms	-13054
▁recon	-13055
▁agreements	-13056
help	-13057
▁entities	-13058
Handle	-13059
ITED	-13060
▁tolerance	-13061
▁shoes	-13062
Am	-13063
ifting	-13064
▁Hamiltonian	-13065
▁pipeline	-13066
′-	-13067
▁1970	-13068
▁trav	-13069
chester	-13070
▁affidav	-13071
▁categor	-13072
▁analyst	-13073
5*	-13074
’.	-13075
▁Cat	-13076
comfort	-13077
▁equipped	-13078
ols	-13079
when	-13080
-24	-13081
▁visitors	-13082
▁Upon	-13083
consin	-13084
Collection	-13085
▁till	-13086
▁melan	-13087
derived	-13088
1]:	-13089
▁Lewis	-13090
▁handler	-13091
▁cavity	-13092
Ac	-13093
3\	-13094
▁participated	-13095
▁reserv	-13096
random	-13097
bibr	-13098
▁Mit	-13099
▁certificate	-13100
[^	-13101
▁births	-13102
▁DI	-13103
mons	-13104
▁emerging	-13105
▁Expl	-13106
▁supplies	-13107
▁holiday	-13108
▁transparent	-13109
▁Emp	-13110
▁aggressive	-13111
▁dans	-13112
auto	-13113
▁extending	-13114
▁lease	-13115
▁-2,	-13116
ulent	-13117
▁ell	-13118
▁Load	-13119
▁mood	-13120
▁118	-13121
▁Spirit	-13122
▁retro	-13123
▁dimin	-13124
rocy	-13125
▁Bible	-13126
▁worried	-13127
▁bills	-13128
▁abdom	-13129
▁kg	-13130
▁Farm	-13131
▁inquiry	-13132
utils	-13133
▁Small	-13134
▁prolong	-13135
▁shots	-13136
▁membership	-13137
prison	-13138
▁).	-13139
>();	-13140
▁Pract	-13141
▁defining	-13142
▁Queen	-13143
tocol	-13144
▁Market	-13145
▁stake	-13146
rans	-13147
Bit	-13148
▁blame	-13149
vard	-13150
▁toxicity	-13151
▁loud	-13152
Host	-13153
▁referring	-13154
\_[	-13155
▁pushing	-13156
▁transmit	-13157
coll	-13158
6%	-13159
▁IO	-13160
▁xe	-13161
▁Korean	-13162
itudinal	-13163
terminal	-13164
▁assem	-13165
▁(3.	-13166
▁Brian	-13167
▁fingers	-13168
ells	-13169
▁Afghanistan	-13170
▁Chair	-13171
.02	-13172
4;	-13173
▁CNN	-13174
▁Systems	-13175
▁tied	-13176
itage	-13177
▁baseball	-13178
▁obligation	-13179
▁deemed	-13180
olis	-13181
nie	-13182
▁Very	-13183
▁estimation	-13184
▁IFN	-13185
▁preserve	-13186
▁suspended	-13187
▁polymorph	-13188
urse	-13189
commun	-13190
vir	-13191
▁vessels	-13192
▁modeling	-13193
enant	-13194
▁Vill	-13195
▁breakfast	-13196
▁accurately	-13197
bad	-13198
▁establishment	-13199
_[	-13200
▁healing	-13201
▁listening	-13202
▁Besides	-13203
tan	-13204
▁Sports	-13205
▁nucleus	-13206
▁trem	-13207
REE	-13208
▁Sea	-13209
pletion	-13210
connected	-13211
vised	-13212
▁assistant	-13213
▁arising	-13214
▁meaningful	-13215
▁reliability	-13216
PER	-13217
Param	-13218
▁regarded	-13219
▁adjustment	-13220
▁inputs	-13221
_>	-13222
▁inflation	-13223
▁denying	-13224
▁soph	-13225
▁np	-13226
endo	-13227
▁injected	-13228
▁expense	-13229
--1.	-13230
▁reset	-13231
▁df	-13232
▁penet	-13233
▁territory	-13234
criptor	-13235
}^{2	-13236
▁phrase	-13237
▁reply	-13238
▁Plus	-13239
▁electrons	-13240
▁behavioral	-13241
▁tow	-13242
▁Hay	-13243
1);	-13244
▁condem	-13245
hma	-13246
▁ranges	-13247
recated	-13248
▁indication	-13249
▁promoting	-13250
▁Cro	-13251
energy	-13252
▁19.	-13253
▁Notice	-13254
▁climb	-13255
▁2017,	-13256
▁muscles	-13257
▁encounter	-13258
bigg	-13259
avirus	-13260
▁demonstrates	-13261
▁scroll	-13262
▁suspected	-13263
▁suppression	-13264
ouri	-13265
▁angry	-13266
▁nons	-13267
password	-13268
▁branches	-13269
▁resistant	-13270
▁energies	-13271
AVE	-13272
arding	-13273
Json	-13274
.).	-13275
ocyt	-13276
verted	-13277
▁oxidative	-13278
▁libraries	-13279
▁existed	-13280
▁TE	-13281
0*	-13282
▁10*	-13283
▁odds	-13284
resource	-13285
▁definitions	-13286
▁Later	-13287
▁WHERE	-13288
▁136	-13289
▁merg	-13290
inth	-13291
018	-13292
▁warranty	-13293
?)	-13294
kl	-13295
▁endothelial	-13296
▁wondering	-13297
PRE	-13298
▁qui	-13299
▁elderly	-13300
▁Christians	-13301
Hash	-13302
▁Father	-13303
▁indict	-13304
`.	-13305
Stack	-13306
▁weigh	-13307
▁Kelly	-13308
olen	-13309
▁Anth	-13310
ennis	-13311
oa	-13312
phase	-13313
▁Keep	-13314
henyl	-13315
burgh	-13316
▁Him	-13317
/13	-13318
▁impressive	-13319
1000	-13320
▁192	-13321
pread	-13322
Values	-13323
disp	-13324
▁seiz	-13325
Que	-13326
▁comparisons	-13327
appropri	-13328
colon	-13329
▁distances	-13330
▁saving	-13331
▁logical	-13332
▁resident	-13333
▁documented	-13334
ptic	-13335
▁CHECK	-13336
▁microscopy	-13337
vance	-13338
▁deny	-13339
Med	-13340
bow	-13341
▁thy	-13342
▁[...]	-13343
plane	-13344
may	-13345
▁Cy	-13346
Operation	-13347
▁lifestyle	-13348
▁coat	-13349
▁complaints	-13350
Ev	-13351
eld	-13352
▁cock	-13353
▁emotion	-13354
▁FIT	-13355
▁junction	-13356
▁persu	-13357
▁pocket	-13358
BT	-13359
▁artificial	-13360
<<	-13361
▁tags	-13362
WE	-13363
▁Princ	-13364
.\[[@	-13365
enza	-13366
015	-13367
eras	-13368
▁Particip	-13369
▁pill	-13370
▁Dise	-13371
bits	-13372
▁4](#	-13373
about	-13374
▁constitu	-13375
▁tends	-13376
gex	-13377
▁[1]	-13378
▁cortex	-13379
▁Marsh	-13380
rule	-13381
▁closure	-13382
▁inhibited	-13383
hl	-13384
Dep	-13385
▁threats	-13386
▁Graph	-13387
7}	-13388
▁$1,	-13389
▁variability	-13390
Pa	-13391
mn	-13392
005	-13393
Ag	-13394
/.	-13395
▁affirmed	-13396
▁talent	-13397
▁Latin	-13398
▁Natural	-13399
▁transist	-13400
▁Content	-13401
▁---------	-13402
▁capabilities	-13403
area	-13404
▁vag	-13405
▁punishment	-13406
▁stupid	-13407
cover	-13408
▁Unlike	-13409
usetts	-13410
▁trauma	-13411
▁spots	-13412
achusetts	-13413
▁ordin	-13414
▁Insurance	-13415
▁yeast	-13416
Windows	-13417
▁Δ	-13418
▁Mathe	-13419
▁uptake	-13420
▁finance	-13421
▁lect	-13422
immun	-13423
▁suggestions	-13424
▁queue	-13425
'],	-13426
▁-19	-13427
▁invited	-13428
.:	-13429
iotics	-13430
▁Condition	-13431
VF	-13432
▁dental	-13433
Record	-13434
▁thirty	-13435
▁pointing	-13436
vc	-13437
▁visiting	-13438
igm	-13439
{}	-13440
8]	-13441
▁fake	-13442
▁alongside	-13443
▁remem	-13444
▁probable	-13445
▁Drug	-13446
▁XML	-13447
▁Ka	-13448
▁Crit	-13449
▁divor	-13450
▁inev	-13451
oscopic	-13452
▁prejudice	-13453
▁10:	-13454
admin	-13455
▁nitrogen	-13456
=1$	-13457
▁engagement	-13458
▁genomic	-13459
▁minority	-13460
arios	-13461
▁stomach	-13462
▁eq	-13463
▁arrive	-13464
ensively	-13465
▁Nations	-13466
▁Radio	-13467
elve	-13468
▁personality	-13469
DF	-13470
▁implicit	-13471
▁defeat	-13472
register	-13473
irth	-13474
▁faculty	-13475
▁---------------	-13476
▁cancell	-13477
▁dense	-13478
olver	-13479
▁Default	-13480
▁participant	-13481
▁weird	-13482
▁trim	-13483
▁hosts	-13484
selected	-13485
▁Price	-13486
opsy	-13487
ceive	-13488
▁likes	-13489
items	-13490
▁GC	-13491
▁reven	-13492
▁emerged	-13493
▁timely	-13494
▁posterior	-13495
ASH	-13496
icture	-13497
▁preparing	-13498
0.05	-13499
otropic	-13500
▁stayed	-13501
hop	-13502
rass	-13503
},$$	-13504
▁twe	-13505
century	-13506
Serv	-13507
▁mig	-13508
▁strip	-13509
Section	-13510
▁optional	-13511
▁Wisconsin	-13512
AAAA	-13513
grid	-13514
bes	-13515
▁0.25	-13516
▁induces	-13517
held	-13518
omain	-13519
Doc	-13520
▁opens	-13521
tim	-13522
news	-13523
▁asset	-13524
▁spray	-13525
▁-18	-13526
▁tomat	-13527
users	-13528
idx	-13529
metry	-13530
ariance	-13531
)\,	-13532
asia	-13533
▁terrible	-13534
▁chocolate	-13535
▁END	-13536
Panel	-13537
▁basketball	-13538
NOT	-13539
▁Tok	-13540
_1}	-13541
▁20%	-13542
▁virtually	-13543
▁transformed	-13544
)[	-13545
▁incl	-13546
who	-13547
▁factual	-13548
▁satisfaction	-13549
▁11*	-13550
itarian	-13551
▁hung	-13552
alo	-13553
▁refra	-13554
Long	-13555
oni	-13556
▁optimization	-13557
Non	-13558
▁€	-13559
/15	-13560
▁128	-13561
▁Incre	-13562
Identifier	-13563
▁26.	-13564
▁receives	-13565
▁antagon	-13566
▁claiming	-13567
▁coronary	-13568
▁subgroup	-13569
makers	-13570
idespread	-13571
▁Level	-13572
▁decomposition	-13573
-25	-13574
tool	-13575
▁protocols	-13576
▁constants	-13577
2017	-13578
▁Holy	-13579
etc	-13580
Micro	-13581
▁blocking	-13582
▁promised	-13583
dk	-13584
seq	-13585
▁kiss	-13586
▁somebody	-13587
▁respondents	-13588
oton	-13589
▁litigation	-13590
articles	-13591
▁VAL	-13592
▁IgG	-13593
▁$100	-13594
▁shaft	-13595
even	-13596
▁OUT	-13597
▁proposition	-13598
/19	-13599
0.9	-13600
alg	-13601
▁navigation	-13602
▁Kansas	-13603
▁wing	-13604
UB	-13605
▁Mut	-13606
▁confusion	-13607
▁waters	-13608
▁spectrosc	-13609
▁10^	-13610
party	-13611
▁filters	-13612
▁Background	-13613
region	-13614
una	-13615
▁bes	-13616
▁spark	-13617
0001	-13618
idel	-13619
▁bases	-13620
▁welfare	-13621
JS	-13622
good	-13623
▁sentenced	-13624
▁Option	-13625
▁determines	-13626
▁tact	-13627
▁respondent	-13628
▁boss	-13629
▁exclusion	-13630
▁Cells	-13631
▁headed	-13632
▁communicate	-13633
▁appreciated	-13634
▁(6)	-13635
▁mol	-13636
edu	-13637
ummy	-13638
▁efficiently	-13639
sters	-13640
itzer	-13641
▁silicon	-13642
▁localization	-13643
▁Bang	-13644
▁agenda	-13645
▁proxim	-13646
gathered	-13647
none	-13648
▁135	-13649
regon	-13650
▁winner	-13651
00,000	-13652
Main	-13653
▁fru	-13654
ilst	-13655
▁cultured	-13656
git	-13657
▁secured	-13658
▁arth	-13659
zing	-13660
▁Ast	-13661
Items	-13662
▁CSS	-13663
▁decimal	-13664
▁frozen	-13665
▁circular	-13666
▁insect	-13667
▁shortly	-13668
▁challenged	-13669
▁lum	-13670
▁Sym	-13671
▁atomic	-13672
▁athe	-13673
▁dent	-13674
USE	-13675
8%	-13676
uters	-13677
▁anger	-13678
▁incent	-13679
hom	-13680
AE	-13681
▁Proced	-13682
▁'\	-13683
▁liable	-13684
▁orange	-13685
uer	-13686
▁cancers	-13687
▁Os	-13688
READ	-13689
levant	-13690
▁Ult	-13691
lb	-13692
▁cookies	-13693
▁ABC	-13694
▁Materials	-13695
▁Typ	-13696
mitting	-13697
▁instruments	-13698
▁governor	-13699
hs	-13700
ст	-13701
runt	-13702
▁bip	-13703
▁inject	-13704
▁tracks	-13705
language	-13706
▁residential	-13707
▁Cit	-13708
cursor	-13709
Well	-13710
▁inches	-13711
▁lap	-13712
=0,	-13713
doi	-13714
▁bird	-13715
0.001	-13716
▁tweet	-13717
▁heading	-13718
(-2	-13719
allas	-13720
▁circuits	-13721
▁61	-13722
▁motions	-13723
&&	-13724
btn	-13725
▁Matthe	-13726
habil	-13727
▁Cambridge	-13728
▁desper	-13729
▁solved	-13730
inely	-13731
▁fluor	-13732
▁donor	-13733
▁criticism	-13734
▁reputation	-13735
▁enhancement	-13736
▁establishing	-13737
OUT	-13738
▁cot	-13739
▁counterpart	-13740
▁custody	-13741
▁replication	-13742
aire	-13743
>0$	-13744
▁132	-13745
▁Sanders	-13746
conv	-13747
▁Massachusetts	-13748
▁striking	-13749
idine	-13750
▁GM	-13751
▁empir	-13752
▁vibr	-13753
hbar	-13754
▁Claim	-13755
▁mutants	-13756
▁historic	-13757
wd	-13758
▁Left	-13759
▁impairment	-13760
▁Currently	-13761
▁ticket	-13762
▁Norm	-13763
▁imprison	-13764
0_	-13765
▁threatened	-13766
▁thrown	-13767
▁prevented	-13768
▁nose	-13769
▁NEW	-13770
▁stating	-13771
▁Final	-13772
▁mining	-13773
▁resin	-13774
▁appointment	-13775
wt	-13776
delete	-13777
▁conserved	-13778
▁nonlinear	-13779
▁cow	-13780
▁Parent	-13781
1---	-13782
▁dried	-13783
LOG	-13784
1]).	-13785
watch	-13786
▁attorneys	-13787
_{(	-13788
Root	-13789
▁consciousness	-13790
▁Self	-13791
▁acted	-13792
aping	-13793
▁perpet	-13794
▁compression	-13795
atre	-13796
ping	-13797
▁silent	-13798
nutrients	-13799
▁Dun	-13800
iano	-13801
▁constructor	-13802
▁LC	-13803
▁Bio	-13804
▁ub	-13805
orient	-13806
▁tech	-13807
377\	-13808
▁notation	-13809
▁convention	-13810
▁overexp	-13811
▁graphs	-13812
▁flows	-13813
.000	-13814
▁convergence	-13815
ourier	-13816
iah	-13817
▁̧Ð	-13818
ieve	-13819
BF	-13820
▁traits	-13821
▁Being	-13822
closed	-13823
cha	-13824
GM	-13825
husi	-13826
imental	-13827
plements	-13828
▁processor	-13829
▁Unit	-13830
▁intersection	-13831
phia	-13832
▁replied	-13833
▁descending	-13834
▁acknowledged	-13835
▁gray	-13836
▁wage	-13837
IAL	-13838
▁SY	-13839
▁Hawai	-13840
CHAR	-13841
▁exclusively	-13842
iaz	-13843
▁Observ	-13844
walk	-13845
▁attachment	-13846
▁gradually	-13847
move	-13848
▁wins	-13849
▁restore	-13850
ogens	-13851
▁satellite	-13852
▁amend	-13853
▁vegetables	-13854
entials	-13855
▁violations	-13856
PN	-13857
will	-13858
▁sys	-13859
-23	-13860
▁polarization	-13861
▁stained	-13862
▁generalized	-13863
▁Could	-13864
▁Include	-13865
▁Scotland	-13866
▁mature	-13867
▁similarity	-13868
▁cocaine	-13869
▁bleeding	-13870
▁GOP	-13871
▁BL	-13872
▁11:	-13873
Mat	-13874
▁dad	-13875
▁seeks	-13876
▁felony	-13877
▁chances	-13878
3.0	-13879
▁tired	-13880
▁widespread	-13881
▁divid	-13882
▁Rose	-13883
}'	-13884
▁(198	-13885
▁cul	-13886
abb	-13887
▁Station	-13888
▁HTTP	-13889
Note	-13890
▁Soviet	-13891
DH	-13892
▁1%	-13893
▁tries	-13894
▁tmp	-13895
▁viewing	-13896
▁moist	-13897
▁questionnaire	-13898
Callback	-13899
priv	-13900
article	-13901
▁Message	-13902
Enabled	-13903
oped	-13904
▁SI	-13905
aden	-13906
ocl	-13907
▁contention	-13908
ificant	-13909
iami	-13910
▁gentle	-13911
arser	-13912
ulum	-13913
arded	-13914
▁Nature	-13915
▁locked	-13916
▁bedroom	-13917
5.0	-13918
▁symbols	-13919
stage	-13920
▁prescribed	-13921
pany	-13922
▁implant	-13923
▁Nic	-13924
abeth	-13925
▁108	-13926
hex	-13927
▁mad	-13928
▁yeah	-13929
▁fiscal	-13930
ión	-13931
▁Jean	-13932
▁Allen	-13933
▁103	-13934
angel	-13935
▁Edward	-13936
▁preference	-13937
▁trivial	-13938
▁mothers	-13939
▁seats	-13940
Bytes	-13941
▁Hart	-13942
16_	-13943
▁hex	-13944
large	-13945
▁emissions	-13946
..."	-13947
▁Scale	-13948
▁styles	-13949
▁managing	-13950
▁independence	-13951
▁belongs	-13952
▁distinction	-13953
lahoma	-13954
Br	-13955
▁Appro	-13956
▁roads	-13957
▁everyday	-13958
▁memories	-13959
▁accomplish	-13960
▁stimulus	-13961
▁0}	-13962
adelphia	-13963
▁salary	-13964
▁-2.	-13965
▁Harry	-13966
▁capability	-13967
refer	-13968
▁SF	-13969
bp	-13970
ifdef	-13971
+)	-13972
License	-13973
bury	-13974
Sw	-13975
▁(100	-13976
ро	-13977
▁unfair	-13978
▁actors	-13979
▁nobody	-13980
degree	-13981
bec	-13982
▁joining	-13983
▁Ont	-13984
▁redist	-13985
▁2007,	-13986
▁Irish	-13987
▁upset	-13988
bian	-13989
▁cathe	-13990
▁scenes	-13991
▁(95%	-13992
profit	-13993
ONG	-13994
▁Fac	-13995
enum	-13996
▁aux	-13997
▁participating	-13998
▁rescue	-13999
patient	-14000
Properties	-14001
▁BMI	-14002
aya	-14003
models	-14004
но	-14005
▁legitimate	-14006
▁1997	-14007
▁periodic	-14008
olves	-14009
bet	-14010
▁offices	-14011
▁Box	-14012
posing	-14013
▁foreach	-14014
▁wedding	-14015
-2-	-14016
mass	-14017
▁Broad	-14018
▁barg	-14019
▁2016.	-14020
▁unnecessary	-14021
\!\!	-14022
▁briefly	-14023
abama	-14024
▁Maryland	-14025
usive	-14026
▁representatives	-14027
▁advised	-14028
ividually	-14029
instein	-14030
▁",	-14031
▁acceptance	-14032
ante	-14033
Async	-14034
▁bold	-14035
HTML	-14036
▁2014.	-14037
toString	-14038
forming	-14039
inement	-14040
▁Financial	-14041
▁Ut	-14042
^2+^	-14043
▁confused	-14044
▁province	-14045
▁anomal	-14046
oprotein	-14047
▁dietary	-14048
▁Ali	-14049
emat	-14050
▁savings	-14051
▁configured	-14052
,\,	-14053
▁Online	-14054
accept	-14055
▁Oregon	-14056
▁justify	-14057
▁proxy	-14058
▁methylation	-14059
1+	-14060
▁Greg	-14061
▁peptides	-14062
python	-14063
-1}\	-14064
▁conservation	-14065
tah	-14066
slant	-14067
▁Eliz	-14068
▁antioxid	-14069
▁modifications	-14070
▁Chen	-14071
▁undergo	-14072
▁proportional	-14073
Adapter	-14074
▁]{}	-14075
▁randomized	-14076
▁grain	-14077
adequ	-14078
▁Hillary	-14079
▁Rail	-14080
fficiency	-14081
attribute	-14082
ressional	-14083
▁maternal	-14084
pgen	-14085
▁hep	-14086
uming	-14087
▁minds	-14088
release	-14089
▁28.	-14090
▁signing	-14091
▁Task	-14092
▁Ukraine	-14093
▁artist	-14094
▁discharg	-14095
INK	-14096
▁0.000	-14097
▁seal	-14098
▁LED	-14099
risk	-14100
▁sel	-14101
▁landscape	-14102
▁Ark	-14103
▁Future	-14104
áo	-14105
unter	-14106
▁Sure	-14107
▁merch	-14108
▁stere	-14109
▁anterior	-14110
▁BBC	-14111
▁squad	-14112
▁Visual	-14113
▁flying	-14114
▁resort	-14115
▁quasi	-14116
IDS	-14117
▁retros	-14118
inally	-14119
▁≤	-14120
▁motif	-14121
▁Les	-14122
▁Student	-14123
▁pixels	-14124
▁dramatic	-14125
▁partly	-14126
▁134	-14127
▁outstanding	-14128
zi	-14129
6;	-14130
tail	-14131
▁2015.	-14132
’,	-14133
sky	-14134
▁investigating	-14135
▁coating	-14136
ois	-14137
99,	-14138
xf	-14139
▁?>	-14140
screen	-14141
-10-00	-14142
▁107	-14143
3%	-14144
▁purified	-14145
human	-14146
-1-	-14147
▁therein	-14148
asonable	-14149
▁electrodes	-14150
zip	-14151
▁dot	-14152
hers	-14153
▁dance	-14154
short	-14155
▁barely	-14156
generation	-14157
▁shed	-14158
▁и	-14159
"};	-14160
▁Area	-14161
▁Kong	-14162
ilbert	-14163
▁radial	-14164
▁tunnel	-14165
▁discloses	-14166
sed	-14167
▁nursing	-14168
▁mediated	-14169
▁THAT	-14170
▁2012.	-14171
▁airport	-14172
▁protecting	-14173
▁guests	-14174
▁Transport	-14175
700	-14176
/20	-14177
▁pleasure	-14178
▁tob	-14179
▁membranes	-14180
stitutional	-14181
▁curv	-14182
filename	-14183
▁actively	-14184
etheless	-14185
▁incredible	-14186
▁Hong	-14187
sort	-14188
▁angi	-14189
9%	-14190
▁pas	-14191
@"	-14192
arity	-14193
▁27.	-14194
,_	-14195
▁MB	-14196
▁enthusi	-14197
▁Legisl	-14198
▁impaired	-14199
children	-14200
rowth	-14201
mapsto	-14202
▁flowers	-14203
▁bron	-14204
▁Question	-14205
hw	-14206
Helper	-14207
tools	-14208
▁exert	-14209
lium	-14210
!!!	-14211
ocom	-14212
▁Tele	-14213
▁adip	-14214
▁depriv	-14215
▁sentences	-14216
oggle	-14217
NESS	-14218
▁surely	-14219
Pad	-14220
▁shadow	-14221
sample	-14222
Now	-14223
▁privilege	-14224
▁«	-14225
▁git	-14226
▁infants	-14227
▁2013.	-14228
▁encouraged	-14229
oi	-14230
▁Gree	-14231
112	-14232
▁enorm	-14233
▁cooperation	-14234
▁accomplished	-14235
▁Unt	-14236
▁plots	-14237
displaystyle	-14238
▁Oklahoma	-14239
Parent	-14240
▁symp	-14241
▁MT	-14242
azy	-14243
▁Target	-14244
▁Kat	-14245
▁Ak	-14246
▁remarkable	-14247
:10	-14248
;">	-14249
YPE	-14250
settings	-14251
▁ATP	-14252
▁mini	-14253
|^2	-14254
pmatrix	-14255
Serial	-14256
shaped	-14257
137	-14258
▁biomark	-14259
^{-1}$	-14260
▁intestinal	-14261
▁Bry	-14262
▁$0.	-14263
▁dating	-14264
▁overlap	-14265
WH	-14266
▁JavaScript	-14267
hyd	-14268
▁relies	-14269
erer	-14270
andal	-14271
▁relate	-14272
▁initiated	-14273
LINE	-14274
ULAR	-14275
▁syntax	-14276
(5	-14277
▁AB	-14278
ancers	-14279
▁macro	-14280
▁shipping	-14281
▁Nob	-14282
▁franchise	-14283
Tube	-14284
▁gravit	-14285
▁Ven	-14286
ogeneity	-14287
▁Foreign	-14288
▁warned	-14289
unning	-14290
Conn	-14291
▁los	-14292
▁Proof	-14293
Why	-14294
apore	-14295
▁relied	-14296
▁copper	-14297
▁controversial	-14298
arts	-14299
▁Recent	-14300
▁dominated	-14301
▁permits	-14302
▁Treatment	-14303
OVA	-14304
▁Museum	-14305
▁Tai	-14306
▁firms	-14307
Flags	-14308
ORY	-14309
linux	-14310
▁LE	-14311
▁MER	-14312
urred	-14313
▁slide	-14314
▁quoted	-14315
▁accompany	-14316
▁explored	-14317
▁Ide	-14318
Changed	-14319
account	-14320
▁Editor	-14321
fall	-14322
ophil	-14323
▁emotions	-14324
▁graft	-14325
▁$${\	-14326
Active	-14327
▁-20	-14328
▁Oil	-14329
▁EM	-14330
▁wider	-14331
▁parliament	-14332
arer	-14333
▁PUR	-14334
9]	-14335
ogs	-14336
▁continuously	-14337
engine	-14338
Car	-14339
uis	-14340
19.	-14341
XF	-14342
▁upcoming	-14343
genic	-14344
Display	-14345
▁impose	-14346
▁functioning	-14347
opp	-14348
▁gains	-14349
▁myocard	-14350
_1)	-14351
▁robot	-14352
▁corruption	-14353
▁positively	-14354
2);	-14355
▁generations	-14356
▁conflicts	-14357
▁retained	-14358
sym	-14359
▁Pitt	-14360
▁|-	-14361
anth	-14362
▁arrow	-14363
▁brack	-14364
lab	-14365
▁comply	-14366
4.0	-14367
▁aggrav	-14368
ctive	-14369
▁....	-14370
▁shield	-14371
▁Alabama	-14372
▁alumin	-14373
▁computational	-14374
▁BAS	-14375
▁lux	-14376
▁Pack	-14377
▁calm	-14378
▁importantly	-14379
▁ambig	-14380
▁drove	-14381
▁ancest	-14382
▁surviv	-14383
▁profits	-14384
▁compete	-14385
FAULT	-14386
1.1	-14387
4%	-14388
idate	-14389
▁Remember	-14390
)</	-14391
lessly	-14392
schema	-14393
▁crossing	-14394
▁disaster	-14395
▁Moh	-14396
▁perme	-14397
▁lands	-14398
WARE	-14399
▁Anton	-14400
▁advis	-14401
rons	-14402
▁IMP	-14403
▁hip	-14404
▁[^1]:	-14405
▁Debt	-14406
▁websites	-14407
Parameters	-14408
▁proc	-14409
hh	-14410
▁letting	-14411
gun	-14412
▁fluctuations	-14413
▁CV	-14414
atom	-14415
Em	-14416
wiki	-14417
aton	-14418
▁INS	-14419
1,\	-14420
7){	-14421
▁datasets	-14422
.25	-14423
▁Philadelphia	-14424
Icon	-14425
oglob	-14426
▁myth	-14427
▁guaranteed	-14428
▁circles	-14429
▁downstream	-14430
-2.0	-14431
▁scanning	-14432
130	-14433
▁irrad	-14434
▁TB	-14435
Has	-14436
▁Fact	-14437
01.	-14438
}}}(	-14439
▁Navy	-14440
▁canonical	-14441
▁Cre	-14442
▁featured	-14443
hep	-14444
orses	-14445
▁crystall	-14446
▁announcement	-14447
▁infant	-14448
▁Soc	-14449
May	-14450
▁Lag	-14451
▁Seattle	-14452
-2,	-14453
NULL	-14454
▁mos	-14455
▁arrival	-14456
▁Avenue	-14457
▁knife	-14458
▁chat	-14459
_1_	-14460
▁mim	-14461
itored	-14462
▁Scientific	-14463
iating	-14464
▁Video	-14465
osin	-14466
inent	-14467
▁EC	-14468
▁SL	-14469
▁printf	-14470
health	-14471
▁Labour	-14472
▁institutional	-14473
▁expertise	-14474
▁editing	-14475
▁secretary	-14476
oen	-14477
▁fur	-14478
▁Executive	-14479
▁Sep	-14480
▁Miami	-14481
▁eleg	-14482
letter	-14483
▁pursue	-14484
▁graduate	-14485
▁publish	-14486
Let	-14487
▁consisted	-14488
▁silence	-14489
pur	-14490
▁dimensional	-14491
▁penal	-14492
▁indicator	-14493
URT	-14494
▁enrich	-14495
▁intrinsic	-14496
▁4.5	-14497
temp	-14498
▁rape	-14499
generate	-14500
▁servers	-14501
▁Football	-14502
=3	-14503
_*	-14504
pair	-14505
▁accounting	-14506
Found	-14507
▁gri	-14508
▁solvent	-14509
ERV	-14510
▁к	-14511
▁800	-14512
▁Rab	-14513
▁rod	-14514
▁stops	-14515
▁screens	-14516
odge	-14517
FORM	-14518
▁germ	-14519
LICENSE	-14520
▁Hollywood	-14521
▁expectation	-14522
ilipp	-14523
▁strategic	-14524
▁consistency	-14525
▁Frame	-14526
atories	-14527
Ins	-14528
▁09	-14529
orer	-14530
▁overt	-14531
▁cytokines	-14532
▁NR	-14533
▁recurrence	-14534
▁championship	-14535
▁affinity	-14536
▁2006,	-14537
▁sanctions	-14538
▁Muslims	-14539
▁chromat	-14540
▁Kh	-14541
▁manifold	-14542
amide	-14543
▁rings	-14544
▁Neg	-14545
▁gonna	-14546
▁routes	-14547
▁CONFIG	-14548
▁emphasis	-14549
WORD	-14550
▁109	-14551
THER	-14552
eqn	-14553
▁writers	-14554
elson	-14555
▁![](	-14556
▁generates	-14557
Del	-14558
Writer	-14559
▁nec	-14560
▁exceptions	-14561
lit	-14562
▁attacked	-14563
publ	-14564
wat	-14565
▁tar	-14566
▁medications	-14567
▁chromosome	-14568
▁collision	-14569
▁transient	-14570
▁Bol	-14571
005){	-14572
ASK	-14573
377\377\	-14574
essee	-14575
▁KIND	-14576
▁inhibit	-14577
▁gathered	-14578
gb	-14579
▁bp	-14580
edly	-14581
println	-14582
▁reaches	-14583
▁slot	-14584
▁champ	-14585
▁fantastic	-14586
rett	-14587
▁clothing	-14588
/14	-14589
012	-14590
Show	-14591
▁substances	-14592
▁reasoning	-14593
▁>>>	-14594
▁deput	-14595
ibl	-14596
▁convinced	-14597
▁buff	-14598
original	-14599
▁struggling	-14600
▁Conserv	-14601
ORS	-14602
▁“[	-14603
▁Mir	-14604
▁ASS	-14605
▁Jacob	-14606
▁sque	-14607
attered	-14608
▁neurolog	-14609
▁undefined	-14610
▁Pow	-14611
▁corn	-14612
▁replacing	-14613
▁elastic	-14614
160	-14615
▁shit	-14616
▁minimize	-14617
▁Neither	-14618
▁macrophages	-14619
▁pic	-14620
▁lacking	-14621
rifug	-14622
Var	-14623
▁5:	-14624
▁Ele	-14625
▁rab	-14626
▁12:	-14627
▁contemporary	-14628
4:	-14629
UTH	-14630
▁sper	-14631
▁mutual	-14632
lict	-14633
▁Employ	-14634
Product	-14635
monic	-14636
▁derive	-14637
▁Expression	-14638
itated	-14639
scriptstyle	-14640
fers	-14641
▁entropy	-14642
▁login	-14643
▁dies	-14644
AX	-14645
▁bios	-14646
_{3	-14647
▁merit	-14648
0.7	-14649
▁firing	-14650
▁hipp	-14651
▁drives	-14652
usp	-14653
ido	-14654
▁au	-14655
}}^{\	-14656
hell	-14657
▁Hom	-14658
Only	-14659
▁BUT	-14660
▁bathroom	-14661
▁bags	-14662
▁grateful	-14663
▁arom	-14664
▁slope	-14665
hd	-14666
▁corrected	-14667
bean	-14668
▁longitudinal	-14669
wait	-14670
vation	-14671
▁Nation	-14672
4(	-14673
abases	-14674
▁tonight	-14675
▁Prop	-14676
▁collaboration	-14677
:</	-14678
▁exch	-14679
▁2017.	-14680
▁Manager	-14681
imm	-14682
▁licensed	-14683
▁entertainment	-14684
▁Ubuntu	-14685
▁expend	-14686
▁reporters	-14687
▁gastric	-14688
umor	-14689
player	-14690
▁carries	-14691
ea	-14692
▁Hotel	-14693
each	-14694
▁29.	-14695
▁auton	-14696
▁Naz	-14697
▁Email	-14698
▁tobacco	-14699
▁piv	-14700
▁whis	-14701
▁retired	-14702
▁contributing	-14703
▁async	-14704
lan	-14705
ATED	-14706
▁studio	-14707
▁bene	-14708
ountered	-14709
▁placement	-14710
▁initiative	-14711
iph	-14712
▁(<	-14713
igger	-14714
▁debtor	-14715
▁Appell	-14716
▁schemes	-14717
▁Loc	-14718
iquit	-14719
▁predictive	-14720
prefix	-14721
▁Sarah	-14722
▁fragments	-14723
▁Credit	-14724
Ms	-14725
▁stimuli	-14726
▁spinal	-14727
^{+	-14728
rating	-14729
▁McG	-14730
000)	-14731
▁detecting	-14732
afe	-14733
.(	-14734
transform	-14735
[0].	-14736
▁Yeah	-14737
▁foo	-14738
▁1.3	-14739
▁loves	-14740
▁fitted	-14741
▁wis	-14742
▁goto	-14743
▁Blood	-14744
isan	-14745
▁Ross	-14746
▁160	-14747
▁entrance	-14748
▁scenarios	-14749
▁ethnic	-14750
ordinary	-14751
opathy	-14752
2016	-14753
▁equity	-14754
▁termination	-14755
\,\	-14756
utf	-14757
asting	-14758
▁Pu	-14759
owned	-14760
filled	-14761
prene	-14762
▁Bud	-14763
7*	-14764
▁brothers	-14765
▁individually	-14766
▁spokesman	-14767
they	-14768
▁Size	-14769
▁shifts	-14770
8}	-14771
▁fn	-14772
▁persistent	-14773
▁fatal	-14774
▁Mathemat	-14775
POST	-14776
▁inhibitory	-14777
▁lovely	-14778
▁straightforward	-14779
fg	-14780
119	-14781
border	-14782
▁oh	-14783
▁encountered	-14784
▁sphere	-14785
▁fibr	-14786
▁guilt	-14787
▁anybody	-14788
▁presenting	-14789
_0(	-14790
▁burning	-14791
arms	-14792
▁FC	-14793
roit	-14794
▁aligned	-14795
▁noting	-14796
▁indictment	-14797
▁Missouri	-14798
uts	-14799
▁LLC	-14800
views	-14801
four	-14802
▁3.5	-14803
▁Budd	-14804
OG	-14805
▁poorly	-14806
▁Emer	-14807
▁broader	-14808
▁incubation	-14809
▁exclude	-14810
▁Alexander	-14811
▁Diego	-14812
▁Story	-14813
▁filename	-14814
made	-14815
▁-3,	-14816
ISH	-14817
iller	-14818
prom	-14819
.....	-14820
▁Leon	-14821
Definition	-14822
INFO	-14823
▁reconstruction	-14824
rued	-14825
▁anth	-14826
▁allele	-14827
▁tendency	-14828
▁tie	-14829
Sch	-14830
▁alarm	-14831
▁Syrian	-14832
="/	-14833
5/	-14834
lated	-14835
▁ordering	-14836
▁ethanol	-14837
oop	-14838
0.6	-14839
VERSION	-14840
▁raises	-14841
▁hazard	-14842
▁``	-14843
4>	-14844
igue	-14845
metadata	-14846
wp	-14847
▁Corn	-14848
▁drama	-14849
▁addressing	-14850
▁Eag	-14851
▁Notes	-14852
▁Jason	-14853
driv	-14854
phys	-14855
edit	-14856
ti	-14857
▁analysed	-14858
▁Sky	-14859
compat	-14860
▁Bureau	-14861
▁positioned	-14862
▁corporations	-14863
▁roy	-14864
▁'/	-14865
36.	-14866
ORK	-14867
▁terrorist	-14868
whe	-14869
▁impression	-14870
▁SK	-14871
▁neighbors	-14872
▁placebo	-14873
▁[$	-14874
▁occupied	-14875
▁Inn	-14876
▁Da	-14877
▁lawyers	-14878
MAP	-14879
▁190	-14880
ortic	-14881
▁Senator	-14882
BER	-14883
▁moon	-14884
▁tooth	-14885
DATA	-14886
best	-14887
▁cerv	-14888
▁quadr	-14889
0,0	-14890
▁Motion	-14891
▁lesion	-14892
▁Ban	-14893
jango	-14894
▁Auto	-14895
▁Write	-14896
▁begun	-14897
▁associate	-14898
▁Had	-14899
▁inspection	-14900
▁1996	-14901
▁12*	-14902
▁nanop	-14903
▁Remove	-14904
▁133	-14905
▁meals	-14906
▁append	-14907
▁implements	-14908
▁sli	-14909
Ap	-14910
▁chemicals	-14911
▁specimens	-14912
▁handled	-14913
SF	-14914
▁managers	-14915
ynchron	-14916
▁negotiations	-14917
SW	-14918
▁Appendix	-14919
3),	-14920
atar	-14921
▁Integ	-14922
▁grants	-14923
▁fishing	-14924
/10.	-14925
oting	-14926
▁dont	-14927
▁Previous	-14928
springframework	-14929
▁dos	-14930
itance	-14931
▁triple	-14932
▁possibilities	-14933
5,000	-14934
▁env	-14935
▁0.02	-14936
relation	-14937
ailure	-14938
▁Prince	-14939
zh	-14940
▁tong	-14941
▁Brief	-14942
unsigned	-14943
▁Invention	-14944
▁Bad	-14945
▁Bor	-14946
fp	-14947
square	-14948
▁Capital	-14949
▁hemat	-14950
▁wash	-14951
ikip	-14952
Di	-14953
▁cmd	-14954
▁brill	-14955
cker	-14956
After	-14957
▁infil	-14958
006	-14959
▁cong	-14960
▁escap	-14961
▁citizen	-14962
▁golf	-14963
▁Ball	-14964
▁verified	-14965
▁Imp	-14966
▁Forest	-14967
),$$	-14968
▁Governor	-14969
▁localized	-14970
▁formulation	-14971
▁dispersion	-14972
trl	-14973
▁pi	-14974
fb	-14975
EQ	-14976
atomic	-14977
(2,	-14978
▁mandatory	-14979
mc	-14980
▁arises	-14981
▁2;	-14982
▁inconsistent	-14983
▁Works	-14984
etermined	-14985
containing	-14986
}_2	-14987
▁neighbour	-14988
mental	-14989
productive	-14990
▁sake	-14991
▁belt	-14992
forced	-14993
▁08	-14994
styles	-14995
cted	-14996
▁Gro	-14997
aptic	-14998
ista	-14999
▁Licensed	-15000
-21	-15001
UID	-15002
Use	-15003
oÐ	-15004
▁anest	-15005
▁lets	-15006
▁affairs	-15007
▁Turk	-15008
elli	-15009
▁wanting	-15010
▁merge	-15011
▁surrounded	-15012
▁Golden	-15013
▁cake	-15014
mented	-15015
rub	-15016
▁2005,	-15017
▁loose	-15018
▁prefix	-15019
peat	-15020
▁Response	-15021
▁delight	-15022
Files	-15023
▁hired	-15024
5;	-15025
▁[4](#	-15026
▁carriers	-15027
▁grace	-15028
="1"	-15029
visor	-15030
▁RF	-15031
(\[	-15032
▁urine	-15033
Eq	-15034
EMENT	-15035
▁Amb	-15036
▁ships	-15037
▁neuronal	-15038
▁delicious	-15039
▁Burn	-15040
▁expanding	-15041
**2*	-15042
▁engaging	-15043
▁occasionally	-15044
▁simulated	-15045
▁Arth	-15046
▁volumes	-15047
▁approached	-15048
oker	-15049
wave	-15050
▁mile	-15051
▁declaration	-15052
opol	-15053
▁Boy	-15054
eland	-15055
iliary	-15056
inic	-15057
▁shapes	-15058
▁deleted	-15059
▁$6	-15060
▁considerations	-15061
▁barriers	-15062
Ns	-15063
▁loy	-15064
▁Live	-15065
eval	-15066
▁Otherwise	-15067
Second	-15068
▁highlighted	-15069
▁Rules	-15070
▁clubs	-15071
pb	-15072
▁promotion	-15073
▁"%	-15074
▁teasp	-15075
▁arrays	-15076
sun	-15077
ppat	-15078
▁Dark	-15079
▁excit	-15080
▁Tony	-15081
)_{	-15082
Copy	-15083
▁Abs	-15084
▁flexibility	-15085
2.2	-15086
isement	-15087
▁clim	-15088
▁io	-15089
▁hub	-15090
▁Hunt	-15091
POSE	-15092
heres	-15093
ighters	-15094
Rule	-15095
▁chairman	-15096
▁’	-15097
COMP	-15098
▁alien	-15099
riched	-15100
▁disposed	-15101
program	-15102
▁titles	-15103
▁Hind	-15104
▁prostate	-15105
▁Account	-15106
Obj	-15107
▁NBA	-15108
3"	-15109
▁attach	-15110
▁Summer	-15111
holds	-15112
▁137	-15113
▁scar	-15114
▁ps	-15115
▁Hub	-15116
▁organs	-15117
▁Vector	-15118
▁lobby	-15119
▁Ron	-15120
▁Film	-15121
▁postoperative	-15122
ndef	-15123
▁sheets	-15124
▁volunteers	-15125
▁Dallas	-15126
variant	-15127
DITION	-15128
eda	-15129
▁Ct	-15130
▁McD	-15131
}$-	-15132
▁angles	-15133
▁districts	-15134
▁Stock	-15135
▁PER	-15136
▁appellate	-15137
▁SET	-15138
▁2011.	-15139
▁monitored	-15140
▁insights	-15141
▁SV	-15142
▁scholar	-15143
ogra	-15144
quality	-15145
▁encoded	-15146
▁Tennessee	-15147
▁stolen	-15148
ет	-15149
▁suggestion	-15150
}})$	-15151
▁Channel	-15152
▁staying	-15153
▁0$.	-15154
▁forecast	-15155
▁accordingly	-15156
▁infra	-15157
▁substitute	-15158
}_1	-15159
▁remedy	-15160
eded	-15161
five	-15162
▁asthma	-15163
▁impacts	-15164
▁slice	-15165
▁upgrade	-15166
▁tournament	-15167
▁modulation	-15168
▁developmental	-15169
▁rolling	-15170
▁reviewing	-15171
bras	-15172
▁lucky	-15173
▁probation	-15174
▁balanced	-15175
▁Input	-15176
,$	-15177
▁pist	-15178
'(	-15179
▁Prom	-15180
▁proceeds	-15181
▁Rand	-15182
▁legend	-15183
impl	-15184
▁realistic	-15185
▁prescription	-15186
velope	-15187
▁remarks	-15188
apper	-15189
▁controversy	-15190
▁Config	-15191
ika	-15192
▁hearts	-15193
▁photon	-15194
▁Decl	-15195
▁Store	-15196
▁Building	-15197
ylation	-15198
▁suppressed	-15199
▁Row	-15200
cloud	-15201
▁conversations	-15202
▁glyc	-15203
iterator	-15204
mol	-15205
▁Ur	-15206
ycin	-15207
3.5	-15208
▁translate	-15209
aid	-15210
▁spac	-15211
▁Member	-15212
▁fool	-15213
▁incredibly	-15214
Edit	-15215
▁Singapore	-15216
▁extracts	-15217
▁validate	-15218
▁transitions	-15219
▁Senior	-15220
ikipedia	-15221
”)	-15222
dam	-15223
10-	-15224
▁Cra	-15225
▁Contact	-15226
▁1,000	-15227
▁femin	-15228
014	-15229
rophic	-15230
▁Gib	-15231
minute	-15232
itol	-15233
▁imply	-15234
▁Josh	-15235
▁errone	-15236
▁dreams	-15237
▁exhibits	-15238
▁weakness	-15239
sembled	-15240
avor	-15241
▁considerably	-15242
▁Mother	-15243
▁analytical	-15244
▁$("	-15245
▁needle	-15246
▁cytoplasm	-15247
▁operational	-15248
▁Han	-15249
▁2010.	-15250
avax	-15251
▁focuses	-15252
▁asserted	-15253
Step	-15254
▁gastro	-15255
▁buf	-15256
▁garlic	-15257
ARS	-15258
▁utter	-15259
pler	-15260
▁distant	-15261
▁inadequ	-15262
▁innovation	-15263
▁dishes	-15264
▁solving	-15265
8).	-15266
gorithm	-15267
depth	-15268
imon	-15269
▁abandoned	-15270
Directory	-15271
▁conducting	-15272
▁deleg	-15273
bage	-15274
duate	-15275
▁Subject	-15276
^2}{	-15277
enny	-15278
ogenetic	-15279
UNT	-15280
cong	-15281
Err	-15282
Sing	-15283
▁secretion	-15284
XXXX	-15285
record	-15286
rand	-15287
▁Night	-15288
▁Evaluate	-15289
▁VI	-15290
▁sixth	-15291
(!	-15292
bytes	-15293
hythm	-15294
▁Prob	-15295
leading	-15296
▁Sud	-15297
▁remed	-15298
wich	-15299
▁YouTube	-15300
▁barrel	-15301
▁Mom	-15302
▁PARTIC	-15303
▁ligand	-15304
ordon	-15305
▁convenience	-15306
▁Palestinian	-15307
▁Double	-15308
▁Anti	-15309
▁Organization	-15310
▁[0,	-15311
FFFFFFFF	-15312
▁Howard	-15313
fx	-15314
▁morphology	-15315
▁Comment	-15316
▁implementing	-15317
Mac	-15318
▁inference	-15319
▁dispos	-15320
▁Elizabeth	-15321
▁mobility	-15322
▁arguing	-15323
▁ARE	-15324
▁reportedly	-15325
▁,\	-15326
half	-15327
▁Opp	-15328
▁TOD	-15329
Runtime	-15330
▁founder	-15331
Platform	-15332
owner	-15333
▁evaluating	-15334
)\\	-15335
▁Jam	-15336
="../	-15337
▁stiff	-15338
OLD	-15339
PATH	-15340
▁reserve	-15341
iar	-15342
orship	-15343
–19	-15344
▁5)	-15345
▁ROS	-15346
▁COURT	-15347
2018	-15348
ocamp	-15349
▁inspect	-15350
▁placing	-15351
atern	-15352
▁Front	-15353
▁Conclusion	-15354
Our	-15355
\[[@	-15356
▁promoted	-15357
▁Cab	-15358
▁lady	-15359
▁explaining	-15360
▁Rick	-15361
▁transcripts	-15362
▁ns	-15363
▁(0.0	-15364
▁posting	-15365
▁interfer	-15366
▁Rapids	-15367
▁legally	-15368
▁Sequ	-15369
▁sustainable	-15370
▁cannabis	-15371
.",	-15372
days	-15373
▁dispers	-15374
▁MRI	-15375
▁homogeneous	-15376
ocon	-15377
▁phyl	-15378
2\]	-15379
robl	-15380
▁ties	-15381
▁asserts	-15382
via	-15383
▁purely	-15384
▁0$,	-15385
▁constitutes	-15386
▁Hal	-15387
_6	-15388
erving	-15389
PF	-15390
-22	-15391
erator	-15392
▁beings	-15393
▁motivation	-15394
▁-4,	-15395
▁ought	-15396
speed	-15397
▁breathing	-15398
bbed	-15399
▁olive	-15400
(:	-15401
▁varies	-15402
▁curvature	-15403
▁outdoor	-15404
iso	-15405
▁Oak	-15406
105	-15407
ocur	-15408
▁Poly	-15409
▁spoken	-15410
▁credibility	-15411
CLUD	-15412
results	-15413
callback	-15414
pd	-15415
▁cran	-15416
▁merits	-15417
▁arbitration	-15418
▁propri	-15419
▁Protection	-15420
binant	-15421
▁Ask	-15422
▁intact	-15423
▁71	-15424
▁mathematical	-15425
INS	-15426
shared	-15427
▁Cooper	-15428
▁clip	-15429
LOCK	-15430
▁apt	-15431
amous	-15432
"?	-15433
(11	-15434
▁hormone	-15435
1.3	-15436
elesc	-15437
available	-15438
▁overwhelming	-15439
\.	-15440
Layer	-15441
▁pleased	-15442
▁Ess	-15443
▁1960	-15444
▁MC	-15445
▁dozen	-15446
erge	-15447
▁hitting	-15448
▁acquire	-15449
▁shifted	-15450
▁mesh	-15451
▁Theory	-15452
hole	-15453
plication	-15454
▁Trade	-15455
-2}	-15456
Some	-15457
xtures	-15458
▁methodology	-15459
▁Pear	-15460
fox	-15461
▁socket	-15462
)^{\	-15463
esian	-15464
▁MY	-15465
dehy	-15466
▁pulling	-15467
▁RES	-15468
atum	-15469
▁Barn	-15470
▁Bridge	-15471
▁denoted	-15472
cycle	-15473
▁tender	-15474
)_	-15475
123	-15476
▁appearing	-15477
▁Marg	-15478
▁configurations	-15479
▁Der	-15480
▁obsc	-15481
▁Music	-15482
▁traveling	-15483
▁nas	-15484
▁microbi	-15485
140	-15486
IPT	-15487
▁Fa	-15488
appropriate	-15489
▁gamma	-15490
▁quit	-15491
▁pollution	-15492
▁centrifug	-15493
▁recruitment	-15494
▁Lyn	-15495
artifact	-15496
▁robbery	-15497
▁compiler	-15498
TX	-15499
▁Address	-15500
▁lesser	-15501
properties	-15502
alian	-15503
▁prayer	-15504
▁Character	-15505
▁narrative	-15506
bid	-15507
olding	-15508
▁phones	-15509
,’	-15510
sr	-15511
queous	-15512
qual	-15513
rying	-15514
jax	-15515
▁Balt	-15516
emale	-15517
▁biology	-15518
▁Phill	-15519
▁apolog	-15520
▁myel	-15521
irds	-15522
▁wages	-15523
▁officially	-15524
▁"#	-15525
▁Disney	-15526
▁Walker	-15527
▁substrates	-15528
▁extracellular	-15529
▁Clark	-15530
private	-15531
▁remand	-15532
▁cure	-15533
pic	-15534
▁objectives	-15535
▁\+	-15536
XML	-15537
~,	-15538
▁AV	-15539
Sum	-15540
▁12-	-15541
[...]
